{
  "version": "1.0",
  "truncation": null,
  "padding": null,
  "added_tokens": [
    {
      "id": 0,
      "content": "[PAD]",
      "single_word": false,
      "lstrip": false,
      "rstrip": false,
      "normalized": false,
      "special": true
    },
    {
      "id": 1,
      "content": "[UNK]",
      "single_word": false,
      "lstrip": false,
      "rstrip": false,
      "normalized": false,
      "special": true
    },
    {
      "id": 2,
      "content": "[CLS]",
      "single_word": false,
      "lstrip": false,
      "rstrip": false,
      "normalized": false,
      "special": true
    },
    {
      "id": 3,
      "content": "[SEP]",
      "single_word": false,
      "lstrip": false,
      "rstrip": false,
      "normalized": false,
      "special": true
    },
    {
      "id": 4,
      "content": "[MASK]",
      "single_word": false,
      "lstrip": false,
      "rstrip": false,
      "normalized": false,
      "special": true
    }
  ],
  "normalizer": {
    "type": "Sequence",
    "normalizers": [
      {
        "type": "NFD"
      },
      {
        "type": "Lowercase"
      },
      {
        "type": "StripAccents"
      }
    ]
  },
  "pre_tokenizer": {
    "type": "BertPreTokenizer"
  },
  "post_processor": {
    "type": "TemplateProcessing",
    "single": [
      {
        "SpecialToken": {
          "id": "[CLS]",
          "type_id": 0
        }
      },
      {
        "Sequence": {
          "id": "A",
          "type_id": 0
        }
      },
      {
        "SpecialToken": {
          "id": "[SEP]",
          "type_id": 0
        }
      }
    ],
    "pair": [
      {
        "SpecialToken": {
          "id": "[CLS]",
          "type_id": 0
        }
      },
      {
        "Sequence": {
          "id": "A",
          "type_id": 0
        }
      },
      {
        "SpecialToken": {
          "id": "[SEP]",
          "type_id": 0
        }
      },
      {
        "Sequence": {
          "id": "B",
          "type_id": 1
        }
      },
      {
        "SpecialToken": {
          "id": "[SEP]",
          "type_id": 1
        }
      }
    ],
    "special_tokens": {
      "[CLS]": {
        "id": "[CLS]",
        "ids": [
          2
        ],
        "tokens": [
          "[CLS]"
        ]
      },
      "[SEP]": {
        "id": "[SEP]",
        "ids": [
          3
        ],
        "tokens": [
          "[SEP]"
        ]
      }
    }
  },
  "decoder": null,
  "model": {
    "type": "WordPiece",
    "unk_token": "[UNK]",
    "continuing_subword_prefix": "##",
    "max_input_chars_per_word": 100,
    "vocab": {
      "[PAD]": 0,
      "[UNK]": 1,
      "[CLS]": 2,
      "[SEP]": 3,
      "[MASK]": 4,
      "-": 5,
      ".": 6,
      "0": 7,
      "1": 8,
      "2": 9,
      "3": 10,
      "4": 11,
      "5": 12,
      "6": 13,
      "7": 14,
      "8": 15,
      "9": 16,
      "a": 17,
      "b": 18,
      "c": 19,
      "d": 20,
      "e": 21,
      "f": 22,
      "g": 23,
      "h": 24,
      "i": 25,
      "j": 26,
      "k": 27,
      "l": 28,
      "m": 29,
      "n": 30,
      "o": 31,
      "p": 32,
      "q": 33,
      "r": 34,
      "s": 35,
      "t": 36,
      "u": 37,
      "v": 38,
      "w": 39,
      "x": 40,
      "y": 41,
      "z": 42,
      "##n": 43,
      "##v": 44,
      "##e": 45,
      "##s": 46,
      "##t": 47,
      "##o": 48,
      "##c": 49,
      "##k": 50,
      "##i": 51,
      "##0": 52,
      "##8": 53,
      "##j": 54,
      "##r": 55,
      "##1": 56,
      "##h": 57,
      "##z": 58,
      "##q": 59,
      "##g": 60,
      "##7": 61,
      "##6": 62,
      "##b": 63,
      "##l": 64,
      "##f": 65,
      "##y": 66,
      "##x": 67,
      "##w": 68,
      "##d": 69,
      "##m": 70,
      "##a": 71,
      "##p": 72,
      "##u": 73,
      "##2": 74,
      "##9": 75,
      "##5": 76,
      "##4": 77,
      "##3": 78,
      "##er": 79,
      "##in": 80,
      "##an": 81,
      "##es": 82,
      "##ar": 83,
      "##lo": 84,
      "##or": 85,
      "##on": 86,
      "##en": 87,
      "##ot": 88,
      "##al": 89,
      "##sp": 90,
      "##at": 91,
      "##st": 92,
      "##el": 93,
      "##ic": 94,
      "##log": 95,
      "##it": 96,
      "##et": 97,
      "##ur": 98,
      "##as": 99,
      "##ec": 100,
      "##ac": 101,
      "blog": 102,
      "##am": 103,
      "##ad": 104,
      "##um": 105,
      "##il": 106,
      "##is": 107,
      "##ro": 108,
      "##ed": 109,
      "##spot": 110,
      "blogspot": 111,
      "##ol": 112,
      "##bl": 113,
      "##om": 114,
      "##un": 115,
      "##pr": 116,
      "##em": 117,
      "##ir": 118,
      "##us": 119,
      "##ch": 120,
      "##ut": 121,
      "##op": 122,
      "##os": 123,
      "##im": 124,
      "##ap": 125,
      "##ab": 126,
      "##ag": 127,
      "##ig": 128,
      "##11": 129,
      "##eb": 130,
      "##id": 131,
      "##ing": 132,
      "##iv": 133,
      "##od": 134,
      "##ay": 135,
      "##re": 136,
      "##ul": 137,
      "##ak": 138,
      "##ep": 139,
      "##af": 140,
      "##up": 141,
      "##ik": 142,
      "##if": 143,
      "##av": 144,
      "##ov": 145,
      "##ok": 146,
      "##ew": 147,
      "##ef": 148,
      "##of": 149,
      "##eg": 150,
      "##ess": 151,
      "##ow": 152,
      "##ip": 153,
      "##sh": 154,
      "##oc": 155,
      "##th": 156,
      "##ev": 157,
      "##ud": 158,
      "##ey": 159,
      "##tr": 160,
      "##ah": 161,
      "##ts": 162,
      "##og": 163,
      "##ex": 164,
      "##ion": 165,
      "##ek": 166,
      "##01": 167,
      "##ob": 168,
      "##uc": 169,
      "##ia": 170,
      "##ub": 171,
      "##blr": 172,
      "##and": 173,
      "tum": 174,
      "tumblr": 175,
      "##12": 176,
      "##eh": 177,
      "##ord": 178,
      "##19": 179,
      "##oy": 180,
      "##15": 181,
      "##uk": 182,
      "##18": 183,
      "##aw": 184,
      "##ug": 185,
      "##17": 186,
      "##ib": 187,
      "##13": 188,
      "##16": 189,
      "##14": 190,
      "##10": 191,
      "##pl": 192,
      "##1d": 193,
      "##1f": 194,
      "##qu": 195,
      "##1b": 196,
      "##ent": 197,
      "##1c": 198,
      "##oh": 199,
      "##iy": 200,
      "##ix": 201,
      "##ox": 202,
      "##ej": 203,
      "##iz": 204,
      "##uy": 205,
      "##press": 206,
      "##ij": 207,
      "##ih": 208,
      "##sk": 209,
      "##oq": 210,
      "##oj": 211,
      "##az": 212,
      "##ee": 213,
      "##sm": 214,
      "##ff": 215,
      "##aj": 216,
      "word": 217,
      "##ly": 218,
      "##ty": 219,
      "wordpress": 220,
      "##ux": 221,
      "##qn": 222,
      "##ax": 223,
      "##uv": 224,
      "##iw": 225,
      "##uj": 226,
      "##sc": 227,
      "##ry": 228,
      "##uh": 229,
      "##1m": 230,
      "##qm": 231,
      "##1h": 232,
      "##ph": 233,
      "##1j": 234,
      "##1n": 235,
      "##1g": 236,
      "##1k": 237,
      "##1y": 238,
      "##1x": 239,
      "##1w": 240,
      "##1v": 241,
      "##uw": 242,
      "##qk": 243,
      "##est": 244,
      "##qp": 245,
      "##uf": 246,
      "##cl": 247,
      "##nd": 248,
      "##1l": 249,
      "##qj": 250,
      "##sl": 251,
      "##tm": 252,
      "##cc": 253,
      "##qr": 254,
      "##qv": 255,
      "##tl": 256,
      "##sy": 257,
      "##1p": 258,
      "##qw": 259,
      "##ql": 260,
      "##1r": 261,
      "##qy": 262,
      "th": 263,
      "##sn": 264,
      "##bd": 265,
      "##gr": 266,
      "##qh": 267,
      "##sw": 268,
      "##oz": 269,
      "##qx": 270,
      "##tn": 271,
      "##ea": 272,
      "##cd": 273,
      "##qg": 274,
      "##fd": 275,
      "##pp": 276,
      "##bb": 277,
      "##tw": 278,
      "##nn": 279,
      "##io": 280,
      "##ers": 281,
      "##ky": 282,
      "##ez": 283,
      "##sr": 284,
      "##sd": 285,
      "##tv": 286,
      "##sf": 287,
      "##qd": 288,
      "##mm": 289,
      "##qf": 290,
      "##sv": 291,
      "##ll": 292,
      "##sg": 293,
      "##tp": 294,
      "##ny": 295,
      "##sj": 296,
      "##uz": 297,
      "##by": 298,
      "##ng": 299,
      "##tk": 300,
      "##hy": 301,
      "##bc": 302,
      "##br": 303,
      "##my": 304,
      "##tj": 305,
      "##bf": 306,
      "##tg": 307,
      "##nl": 308,
      "##td": 309,
      "##ist": 310,
      "##py": 311,
      "##kl": 312,
      "##cf": 313,
      "##sx": 314,
      "##nv": 315,
      "##dd": 316,
      "##cy": 317,
      "##pm": 318,
      "##ie": 319,
      "##kr": 320,
      "##gy": 321,
      "##km": 322,
      "##tf": 323,
      "##nm": 324,
      "##tx": 325,
      "##cr": 326,
      "##nf": 327,
      "##kh": 328,
      "##ce": 329,
      "##pv": 330,
      "##24": 331,
      "##nj": 332,
      "##nr": 333,
      "##kv": 334,
      "##nw": 335,
      "##kw": 336,
      "##pj": 337,
      "##ld": 338,
      "##sb": 339,
      "##kj": 340,
      "##pw": 341,
      "##nh": 342,
      "##co": 343,
      "##df": 344,
      "##aa": 345,
      "##xy": 346,
      "##gl": 347,
      "sh": 348,
      "##gh": 349,
      "##kf": 350,
      "##le": 351,
      "##cm": 352,
      "##px": 353,
      "##cb": 354,
      "##gm": 355,
      "my": 356,
      "##1a": 357,
      "##kx": 358,
      "##qb": 359,
      "##nx": 360,
      "##kd": 361,
      "##hr": 362,
      "##55": 363,
      "##20": 364,
      "##qz": 365,
      "##ou": 366,
      "##lm": 367,
      "##gw": 368,
      "##pf": 369,
      "##gv": 370,
      "##jy": 371,
      "##tb": 372,
      "##cw": 373,
      "##36": 374,
      "##all": 375,
      "##hm": 376,
      "##34": 377,
      "##cv": 378,
      "##jv": 379,
      "##rm": 380,
      "##88": 381,
      "##1e": 382,
      "##dy": 383,
      "st": 384,
      "##27": 385,
      "##jw": 386,
      "##our": 387,
      "##gx": 388,
      "##cx": 389,
      "##jm": 390,
      "##dr": 391,
      "##99": 392,
      "##ss": 393,
      "##nt": 394,
      "##37": 395,
      "##fr": 396,
      "##47": 397,
      "##25": 398,
      "##35": 399,
      "##jr": 400,
      "##1t": 401,
      "##28": 402,
      "##38": 403,
      "##67": 404,
      "##fa": 405,
      "##hw": 406,
      "##lv": 407,
      "##jx": 408,
      "##29": 409,
      "##65": 410,
      "##39": 411,
      "##00": 412,
      "##hv": 413,
      "##bm": 414,
      "##ast": 415,
      "##pd": 416,
      "##bw": 417,
      "##ks": 418,
      "##69": 419,
      "##68": 420,
      "##1q": 421,
      "##64": 422,
      "##bv": 423,
      "##lw": 424,
      "##art": 425,
      "##gf": 426,
      "##gd": 427,
      "ch": 428,
      "##xx": 429,
      "##lr": 430,
      "##ym": 431,
      "##ine": 432,
      "##ae": 433,
      "##kp": 434,
      "##oo": 435,
      "##ian": 436,
      "##iq": 437,
      "##30": 438,
      "##1s": 439,
      "##int": 440,
      "##44": 441,
      "##ht": 442,
      "##dm": 443,
      "##zy": 444,
      "##np": 445,
      "##ns": 446,
      "##ue": 447,
      "##xm": 448,
      "##jf": 449,
      "##dv": 450,
      "##ai": 451,
      "##xw": 452,
      "##57": 453,
      "##60": 454,
      "##xv": 455,
      "##a7": 456,
      "##3d": 457,
      "##ck": 458,
      "##2f": 459,
      "##ant": 460,
      "##49": 461,
      "##58": 462,
      "##ech": 463,
      "##rv": 464,
      "##lf": 465,
      "##gj": 466,
      "##uq": 467,
      "##59": 468,
      "##2d": 469,
      "##ww": 470,
      "##48": 471,
      "##zm": 472,
      "##nk": 473,
      "##bh": 474,
      "##3f": 475,
      "##ell": 476,
      "##cj": 477,
      "##au": 478,
      "##40": 479,
      "##rw": 480,
      "##e7": 481,
      "##a8": 482,
      "##6f": 483,
      "##hf": 484,
      "##a9": 485,
      "##ation": 486,
      "##ard": 487,
      "tr": 488,
      "##ill": 489,
      "##bx": 490,
      "##zv": 491,
      "##zw": 492,
      "##6d": 493,
      "##ang": 494,
      "##1u": 495,
      "##be": 496,
      "##qq": 497,
      "##nc": 498,
      "##jj": 499,
      "##50": 500,
      "##ind": 501,
      "##vy": 502,
      "##se": 503,
      "##pt": 504,
      "##rr": 505,
      "##hd": 506,
      "##kk": 507,
      "##22": 508,
      "##he": 509,
      "##iu": 510,
      "##wy": 511,
      "##lx": 512,
      "##77": 513,
      "##vm": 514,
      "##wm": 515,
      "##ho": 516,
      "##gp": 517,
      "##qc": 518,
      "##fm": 519,
      "##fy": 520,
      "##hx": 521,
      "##nb": 522,
      "##1o": 523,
      "##nz": 524,
      "##45": 525,
      "##no": 526,
      "al": 527,
      "##sz": 528,
      "##tc": 529,
      "##a0": 530,
      "##hl": 531,
      "##e8": 532,
      "##4d": 533,
      "##gg": 534,
      "##ao": 535,
      "ar": 536,
      "##ort": 537,
      "##e9": 538,
      "##1i": 539,
      "##66": 540,
      "##32": 541,
      "##kb": 542,
      "##vv": 543,
      "##jd": 544,
      "##eo": 545,
      "##qt": 546,
      "##ies": 547,
      "##3b": 548,
      "##c9": 549,
      "##a5": 550,
      "##4f": 551,
      "##erv": 552,
      "##kg": 553,
      "##yy": 554,
      "##c8": 555,
      "##pg": 556,
      "##bo": 557,
      "##09": 558,
      "##ain": 559,
      "##to": 560,
      "##c7": 561,
      "##tz": 562,
      "##wv": 563,
      "##wr": 564,
      "##2b": 565,
      "##07": 566,
      "##jl": 567,
      "##08": 568,
      "##kz": 569,
      "##pz": 570,
      "##ii": 571,
      "##xr": 572,
      "##hh": 573,
      "##5d": 574,
      "##uo": 575,
      "##xf": 576,
      "##ps": 577,
      "##end": 578,
      "##kn": 579,
      "##po": 580,
      "##6b": 581,
      "##te": 582,
      "pr": 583,
      "##yd": 584,
      "##qs": 585,
      "##jh": 586,
      "##cg": 587,
      "##mv": 588,
      "##ark": 589,
      "##a4": 590,
      "##33": 591,
      "##5f": 592,
      "##ne": 593,
      "##78": 594,
      "##pk": 595,
      "##uu": 596,
      "##xd": 597,
      "##mr": 598,
      "##aq": 599,
      "##shop": 600,
      "##62": 601,
      "##pb": 602,
      "##98": 603,
      "##zz": 604,
      "##lj": 605,
      "##yr": 606,
      "##tt": 607,
      "##wf": 608,
      "##wd": 609,
      "##0d": 610,
      "##vr": 611,
      "##yf": 612,
      "##ci": 613,
      "##hj": 614,
      "##ge": 615,
      "##cz": 616,
      "##ach": 617,
      "##a2": 618,
      "##pn": 619,
      "##yl": 620,
      "##ect": 621,
      "##so": 622,
      "##gb": 623,
      "##54": 624,
      "##79": 625,
      "##yv": 626,
      "##ui": 627,
      "##e4": 628,
      "##ct": 629,
      "##wh": 630,
      "##cp": 631,
      "##0f": 632,
      "##und": 633,
      "##mf": 634,
      "##63": 635,
      "##zr": 636,
      "##ust": 637,
      "##xl": 638,
      "##kt": 639,
      "##ass": 640,
      "##bj": 641,
      "##xj": 642,
      "##ood": 643,
      "##b8": 644,
      "##52": 645,
      "##ity": 646,
      "##zd": 647,
      "##zf": 648,
      "##ca": 649,
      "##mw": 650,
      "##ei": 651,
      "##qo": 652,
      "##rd": 653,
      "##md": 654,
      "##ri": 655,
      "##bly": 656,
      "##7d": 657,
      "##xp": 658,
      "##42": 659,
      "##xh": 660,
      "##89": 661,
      "##sa": 662,
      "##lh": 663,
      "##gk": 664,
      "##eal": 665,
      "##vf": 666,
      "##ni": 667,
      "##b9": 668,
      "##yw": 669,
      "##rf": 670,
      "##7f": 671,
      "##vd": 672,
      "##vw": 673,
      "##gz": 674,
      "##e2": 675,
      "##e5": 676,
      "##mp": 677,
      "##con": 678,
      "##c5": 679,
      "##ash": 680,
      "##si": 681,
      "##05": 682,
      "##na": 683,
      "##23": 684,
      "##c4": 685,
      "##ko": 686,
      "pro": 687,
      "##zh": 688,
      "##ka": 689,
      "##zl": 690,
      "wee": 691,
      "##su": 692,
      "##gu": 693,
      "##ert": 694,
      "weebly": 695,
      "##wl": 696,
      "##wj": 697,
      "sp": 698,
      "##04": 699,
      "##yp": 700,
      "##kc": 701,
      "##rl": 702,
      "##8d": 703,
      "##eu": 704,
      "##fl": 705,
      "br": 706,
      "##a3": 707,
      "##nq": 708,
      "##sq": 709,
      "##zj": 710,
      "##26": 711,
      "##eq": 712,
      "##mj": 713,
      "##ml": 714,
      "##go": 715,
      "##9d": 716,
      "##yb": 717,
      "##ish": 718,
      "##ear": 719,
      "##a6": 720,
      "##mb": 721,
      "##74": 722,
      "##wx": 723,
      "##vj": 724,
      "##gt": 725,
      "##ki": 726,
      "##zx": 727,
      "##ify": 728,
      "##yh": 729,
      "##rj": 730,
      "##vl": 731,
      "##e0": 732,
      "el": 733,
      "##gn": 734,
      "##yj": 735,
      "##8f": 736,
      "##9f": 737,
      "##arm": 738,
      "##56": 739,
      "##cu": 740,
      "##ial": 741,
      "##erm": 742,
      "##ti": 743,
      "##mx": 744,
      "##cn": 745,
      "##97": 746,
      "##87": 747,
      "##e3": 748,
      "##e6": 749,
      "gr": 750,
      "##b7": 751,
      "##hp": 752,
      "##c0": 753,
      "##vx": 754,
      "xn": 755,
      "##kq": 756,
      "##ha": 757,
      "##46": 758,
      "18": 759,
      "##tu": 760,
      "##pro": 761,
      "##c2": 762,
      "##hb": 763,
      "##53": 764,
      "19": 765,
      "##ern": 766,
      "##c6": 767,
      "##gs": 768,
      "##rx": 769,
      "##tq": 770,
      "##yx": 771,
      "##43": 772,
      "##pq": 773,
      "##ool": 774,
      "##ail": 775,
      "##are": 776,
      "##oi": 777,
      "am": 778,
      "##cs": 779,
      "##gi": 780,
      "cl": 781,
      "##vh": 782,
      "##gq": 783,
      "##1z": 784,
      "##yn": 785,
      "17": 786,
      "##5b": 787,
      "##ond": 788,
      "##mh": 789,
      "##ua": 790,
      "##c3": 791,
      "##02": 792,
      "##rh": 793,
      "##com": 794,
      "##ost": 795,
      "##cq": 796,
      "##4b": 797,
      "##06": 798,
      "1d": 799,
      "##wp": 800,
      "##jp": 801,
      "##ku": 802,
      "##onl": 803,
      "1f": 804,
      "##ys": 805,
      "##ra": 806,
      "##ore": 807,
      "##ta": 808,
      "##roup": 809,
      "##03": 810,
      "##orm": 811,
      "##lp": 812,
      "##rb": 813,
      "##ics": 814,
      "##jb": 815,
      "##hi": 816,
      "##air": 817,
      "##nu": 818,
      "##mo": 819,
      "##0b": 820,
      "##zp": 821,
      "##wb": 822,
      "##rp": 823,
      "##vi": 824,
      "##qi": 825,
      "##esig": 826,
      "##ont": 827,
      "##xb": 828,
      "##zb": 829,
      "##ens": 830,
      "##ver": 831,
      "##db": 832,
      "##ack": 833,
      "##vp": 834,
      "##lb": 835,
      "##lu": 836,
      "##85": 837,
      "##ult": 838,
      "##ath": 839,
      "##ms": 840,
      "##75": 841,
      "##ice": 842,
      "##fb": 843,
      "##94": 844,
      "##rg": 845,
      "##anc": 846,
      "##ter": 847,
      "##oll": 848,
      "##84": 849,
      "##95": 850,
      "##96": 851,
      "##ital": 852,
      "##yg": 853,
      "##vb": 854,
      "##blog": 855,
      "##92": 856,
      "##72": 857,
      "pl": 858,
      "##ier": 859,
      "##ions": 860,
      "##wn": 861,
      "12": 862,
      "##76": 863,
      "##dl": 864,
      "##86": 865,
      "##app": 866,
      "10": 867,
      "##ke": 868,
      "##esp": 869,
      "myshop": 870,
      "##jz": 871,
      "##82": 872,
      "myshopify": 873,
      "mar": 874,
      "##dw": 875,
      "##jg": 876,
      "##out": 877,
      "##yt": 878,
      "15": 879,
      "##ive": 880,
      "##fw": 881,
      "16": 882,
      "##73": 883,
      "##93": 884,
      "14": 885,
      "##fv": 886,
      "##jk": 887,
      "##xg": 888,
      "##hg": 889,
      "##oe": 890,
      "##hk": 891,
      "##ann": 892,
      "##ls": 893,
      "13": 894,
      "##83": 895,
      "##ans": 896,
      "##mg": 897,
      "fr": 898,
      "##age": 899,
      "##pu": 900,
      "##mz": 901,
      "##mn": 902,
      "##7b": 903,
      "##ate": 904,
      "##do": 905,
      "1v": 906,
      "##nal": 907,
      "##ace": 908,
      "1w": 909,
      "##yc": 910,
      "##fx": 911,
      "##inc": 912,
      "##hs": 913,
      "##mk": 914,
      "##pi": 915,
      "##rk": 916,
      "##yk": 917,
      "##9b": 918,
      "##zg": 919,
      "##jn": 920,
      "1x": 921,
      "##8b": 922,
      "##zk": 923,
      "##wg": 924,
      "in": 925,
      "##hn": 926,
      "##ors": 927,
      "##str": 928,
      "##lg": 929,
      "##ien": 930,
      "##vg": 931,
      "##70": 932,
      "##ons": 933,
      "blogfa": 934,
      "##90": 935,
      "##ich": 936,
      "ad": 937,
      "##lk": 938,
      "##yz": 939,
      "##ber": 940,
      "##rn": 941,
      "##xk": 942,
      "##oa": 943,
      "##lz": 944,
      "##vk": 945,
      "com": 946,
      "##wk": 947,
      "##80": 948,
      "liv": 949,
      "##we": 950,
      "##hz": 951,
      "##hu": 952,
      "##act": 953,
      "##otel": 954,
      "##rs": 955,
      "##pc": 956,
      "##jq": 957,
      "##vn": 958,
      "##wor": 959,
      "##ln": 960,
      "##ick": 961,
      "##me": 962,
      "##li": 963,
      "##de": 964,
      "##ba": 965,
      "##fo": 966,
      "##ru": 967,
      "##rz": 968,
      "##ide": 969,
      "1m": 970,
      "##dx": 971,
      "##ery": 972,
      "##ma": 973,
      "1y": 974,
      "##q7": 975,
      "co": 976,
      "##lt": 977,
      "##ica": 978,
      "##q8": 979,
      "##js": 980,
      "##jt": 981,
      "sm": 982,
      "##pe": 983,
      "##xn": 984,
      "##i7": 985,
      "##i8": 986,
      "##yo": 987,
      "##q4": 988,
      "##wz": 989,
      "##xz": 990,
      "##i2": 991,
      "##u8": 992,
      "##i4": 993,
      "##old": 994,
      "##per": 995,
      "dr": 996,
      "##pa": 997,
      "##u7": 998,
      "##gc": 999,
      "##q9": 1000,
      "##i3": 1001,
      "##vz": 1002,
      "##ins": 1003,
      "##q3": 1004,
      "##ws": 1005,
      "##ous": 1006,
      "##ari": 1007,
      "##lor": 1008,
      "1j": 1009,
      "##qe": 1010,
      "##i9": 1011,
      "##u4": 1012,
      "##q2": 1013,
      "##ung": 1014,
      "an": 1015,
      "##q5": 1016,
      "##rt": 1017,
      "##ve": 1018,
      "##ews": 1019,
      "##u9": 1020,
      "##o2": 1021,
      "##q6": 1022,
      "##u2": 1023,
      "##u3": 1024,
      "##i5": 1025,
      "##ite": 1026,
      "##fj": 1027,
      "ed": 1028,
      "##vt": 1029,
      "##la": 1030,
      "##orn": 1031,
      "##mt": 1032,
      "##epo": 1033,
      "##i6": 1034,
      "##u5": 1035,
      "##fe": 1036,
      "##ure": 1037,
      "##ong": 1038,
      "##ina": 1039,
      "##ings": 1040,
      "##o5": 1041,
      "##xt": 1042,
      "##wt": 1043,
      "shar": 1044,
      "##zt": 1045,
      "##u6": 1046,
      "1b": 1047,
      "##esh": 1048,
      "##ya": 1049,
      "1h": 1050,
      "##lc": 1051,
      "##o4": 1052,
      "##ical": 1053,
      "##zn": 1054,
      "##dh": 1055,
      "##esign": 1056,
      "##vs": 1057,
      "##fc": 1058,
      "##eng": 1059,
      "1r": 1060,
      "##fh": 1061,
      "##dc": 1062,
      "##bg": 1063,
      "cr": 1064,
      "##dj": 1065,
      "##qa": 1066,
      "##bs": 1067,
      "##o6": 1068,
      "##ook": 1069,
      "##mc": 1070,
      "##igh": 1071,
      "##iel": 1072,
      "##o3": 1073,
      "##o9": 1074,
      "##amp": 1075,
      "##xc": 1076,
      "##elo": 1077,
      "##online": 1078,
      "##arket": 1079,
      "##alo": 1080,
      "##s2": 1081,
      "##bk": 1082,
      "##s4": 1083,
      "1l": 1084,
      "##her": 1085,
      "##ogr": 1086,
      "bl": 1087,
      "car": 1088,
      "##ournal": 1089,
      "##s9": 1090,
      "tm": 1091,
      "##za": 1092,
      "ph": 1093,
      "##car": 1094,
      "##olut": 1095,
      "1g": 1096,
      "##o8": 1097,
      "sch": 1098,
      "##ank": 1099,
      "##fg": 1100,
      "##fp": 1101,
      "##s5": 1102,
      "##o7": 1103,
      "##bp": 1104,
      "##ild": 1105,
      "##ents": 1106,
      "##aur": 1107,
      "##0x": 1108,
      "##ight": 1109,
      "un": 1110,
      "##ater": 1111,
      "##own": 1112,
      "##man": 1113,
      "##s8": 1114,
      "##bu": 1115,
      "##6z": 1116,
      "##wc": 1117,
      "##bn": 1118,
      "par": 1119,
      "##epoint": 1120,
      "##iss": 1121,
      "##k9": 1122,
      "##ead": 1123,
      "##jc": 1124,
      "##s7": 1125,
      "web": 1126,
      "1p": 1127,
      "##vc": 1128,
      "##enter": 1129,
      "##one": 1130,
      "##bi": 1131,
      "##4x": 1132,
      "##vo": 1133,
      "##fk": 1134,
      "##t2": 1135,
      "##q0": 1136,
      "##for": 1137,
      "##hc": 1138,
      "##ein": 1139,
      "##s3": 1140,
      "##6w": 1141,
      "##sch": 1142,
      "##ga": 1143,
      "##ju": 1144,
      "sharepoint": 1145,
      "##da": 1146,
      "##i0": 1147,
      "##t9": 1148,
      "##4y": 1149,
      "##6v": 1150,
      "##iet": 1151,
      "##n8": 1152,
      "##k5": 1153,
      "##2z": 1154,
      "##t7": 1155,
      "##bal": 1156,
      "##t8": 1157,
      "##6x": 1158,
      "##6j": 1159,
      "##reat": 1160,
      "##rc": 1161,
      "##3x": 1162,
      "##k8": 1163,
      "##dn": 1164,
      "the": 1165,
      "##3w": 1166,
      "##lq": 1167,
      "##t5": 1168,
      "##dg": 1169,
      "##lin": 1170,
      "##3z": 1171,
      "##dp": 1172,
      "##atr": 1173,
      "##6y": 1174,
      "##off": 1175,
      "##2w": 1176,
      "##4m": 1177,
      "##u0": 1178,
      "##ory": 1179,
      "##n9": 1180,
      "##k7": 1181,
      "##hq": 1182,
      "##3m": 1183,
      "##n7": 1184,
      "##eri": 1185,
      "con": 1186,
      "##erg": 1187,
      "##6m": 1188,
      "##4z": 1189,
      "##4w": 1190,
      "##ance": 1191,
      "aut": 1192,
      "##jo": 1193,
      "##g9": 1194,
      "##any": 1195,
      "##g5": 1196,
      "##enc": 1197,
      "ex": 1198,
      "##2m": 1199,
      "##2v": 1200,
      "##els": 1201,
      "##ja": 1202,
      "##21": 1203,
      "##b5": 1204,
      "##n5": 1205,
      "##ejournal": 1206,
      "##3v": 1207,
      "##3y": 1208,
      "##2x": 1209,
      "##bz": 1210,
      "##etr": 1211,
      "##0z": 1212,
      "##att": 1213,
      "##ary": 1214,
      "##0w": 1215,
      "##ental": 1216,
      "##uct": 1217,
      "##rq": 1218,
      "##0m": 1219,
      "##4v": 1220,
      "##3c": 1221,
      "em": 1222,
      "livejournal": 1223,
      "##je": 1224,
      "im": 1225,
      "##fn": 1226,
      "##ios": 1227,
      "##usic": 1228,
      "##0y": 1229,
      "##2y": 1230,
      "##4h": 1231,
      "##6c": 1232,
      "##g8": 1233,
      "##ets": 1234,
      "all": 1235,
      "##ft": 1236,
      "##ett": 1237,
      "##udio": 1238,
      "##g7": 1239,
      "qu": 1240,
      "ap": 1241,
      "##6r": 1242,
      "##wq": 1243,
      "##unt": 1244,
      "##ervic": 1245,
      "##dk": 1246,
      "##va": 1247,
      "int": 1248,
      "med": 1249,
      "##ji": 1250,
      "##ife": 1251,
      "##4l": 1252,
      "##2c": 1253,
      "##vq": 1254,
      "##low": 1255,
      "##p7": 1256,
      "##mq": 1257,
      "##p8": 1258,
      "##2j": 1259,
      "##xq": 1260,
      "##bt": 1261,
      "##p9": 1262,
      "##p5": 1263,
      "ag": 1264,
      "##aut": 1265,
      "##4c": 1266,
      "##3j": 1267,
      "##xs": 1268,
      "##ds": 1269,
      "##err": 1270,
      "##6h": 1271,
      "##3h": 1272,
      "##0v": 1273,
      "##31": 1274,
      "##0h": 1275,
      "##3r": 1276,
      "ev": 1277,
      "##med": 1278,
      "##201": 1279,
      "##2r": 1280,
      "##fz": 1281,
      "##61": 1282,
      "##ink": 1283,
      "##ade": 1284,
      "1k": 1285,
      "##iqu": 1286,
      "##iam": 1287,
      "##4j": 1288,
      "##eth": 1289,
      "##6l": 1290,
      "##41": 1291,
      "or": 1292,
      "##ome": 1293,
      "##mu": 1294,
      "##3l": 1295,
      "##a1": 1296,
      "##ith": 1297,
      "##2h": 1298,
      "##0l": 1299,
      "new": 1300,
      "##wo": 1301,
      "wh": 1302,
      "##4r": 1303,
      "##5z": 1304,
      "##8x": 1305,
      "##erd": 1306,
      "##yu": 1307,
      "##0j": 1308,
      "av": 1309,
      "se": 1310,
      "##0c": 1311,
      "##land": 1312,
      "##dz": 1313,
      "##obil": 1314,
      "##0r": 1315,
      "##fs": 1316,
      "##mi": 1317,
      "fre": 1318,
      "##7z": 1319,
      "##5x": 1320,
      "kr": 1321,
      "##ana": 1322,
      "ac": 1323,
      "##inn": 1324,
      "##erf": 1325,
      "##9z": 1326,
      "##2l": 1327,
      "##esc": 1328,
      "##8z": 1329,
      "##ale": 1330,
      "##urg": 1331,
      "##orts": 1332,
      "on": 1333,
      "##org": 1334,
      "##7w": 1335,
      "##5y": 1336,
      "##par": 1337,
      "##b4": 1338,
      "##adem": 1339,
      "##7x": 1340,
      "##5w": 1341,
      "##avel": 1342,
      "shop": 1343,
      "fl": 1344,
      "##9y": 1345,
      "##ros": 1346,
      "##ton": 1347,
      "##5v": 1348,
      "##8y": 1349,
      "##5c": 1350,
      "##enn": 1351,
      "##5m": 1352,
      "##9x": 1353,
      "##ock": 1354,
      "##ream": 1355,
      "##7y": 1356,
      "##e1": 1357,
      "1n": 1358,
      "##9w": 1359,
      "##8w": 1360,
      "##ino": 1361,
      "##di": 1362,
      "##bq": 1363,
      "##atur": 1364,
      "##7v": 1365,
      "ir": 1366,
      "##erc": 1367,
      "and": 1368,
      "for": 1369,
      "##8m": 1370,
      "le": 1371,
      "##7m": 1372,
      "##wa": 1373,
      "##9m": 1374,
      "##eaut": 1375,
      "en": 1376,
      "##8v": 1377,
      "##wi": 1378,
      "##oto": 1379,
      "##ye": 1380,
      "##9v": 1381,
      "##8h": 1382,
      "##wu": 1383,
      "##5j": 1384,
      "##yq": 1385,
      "##ase": 1386,
      "az": 1387,
      "##xu": 1388,
      "sk": 1389,
      "##5h": 1390,
      "##entr": 1391,
      "##9j": 1392,
      "##dt": 1393,
      "de": 1394,
      "##8j": 1395,
      "##s6": 1396,
      "ind": 1397,
      "##7j": 1398,
      "sc": 1399,
      "##51": 1400,
      "##orld": 1401,
      "##b2": 1402,
      "##use": 1403,
      "##i1": 1404,
      "##vu": 1405,
      "##olo": 1406,
      "##ias": 1407,
      "##5r": 1408,
      "##p3": 1409,
      "##7c": 1410,
      "##8l": 1411,
      "##ars": 1412,
      "##b6": 1413,
      "her": 1414,
      "##fq": 1415,
      "##f9": 1416,
      "##7h": 1417,
      "inf": 1418,
      "##ara": 1419,
      "##arr": 1420,
      "##xo": 1421,
      "##als": 1422,
      "##ealth": 1423,
      "sw": 1424,
      "##2g": 1425,
      "ab": 1426,
      "##fu": 1427,
      "onl": 1428,
      "te": 1429,
      "##t4": 1430,
      "##f8": 1431,
      "##5l": 1432,
      "##oot": 1433,
      "##7r": 1434,
      "##rom": 1435,
      "##6g": 1436,
      "##abl": 1437,
      "##ze": 1438,
      "##ilm": 1439,
      "##ats": 1440,
      "##9h": 1441,
      "##ites": 1442,
      "##ama": 1443,
      "##ict": 1444,
      "##3g": 1445,
      "##fi": 1446,
      "##7l": 1447,
      "##0a": 1448,
      "##xi": 1449,
      "##ald": 1450,
      "##81": 1451,
      "##8r": 1452,
      "##amil": 1453,
      "##ames": 1454,
      "##9r": 1455,
      "tmall": 1456,
      "##6k": 1457,
      "##zo": 1458,
      "##71": 1459,
      "##n4": 1460,
      "##reen": 1461,
      "##2k": 1462,
      "##b3": 1463,
      "##9c": 1464,
      "##u1": 1465,
      "##erb": 1466,
      "##ire": 1467,
      "##9l": 1468,
      "##91": 1469,
      "sy": 1470,
      "##p4": 1471,
      "##ico": 1472,
      "##8c": 1473,
      "##t3": 1474,
      "##zi": 1475,
      "##0g": 1476,
      "##du": 1477,
      "##t6": 1478,
      "##ais": 1479,
      "##igital": 1480,
      "net": 1481,
      "##its": 1482,
      "as": 1483,
      "##yi": 1484,
      "##ervices": 1485,
      "##eed": 1486,
      "##q1": 1487,
      "##atch": 1488,
      "##0k": 1489,
      "##ani": 1490,
      "##ada": 1491,
      "er": 1492,
      "##otogr": 1493,
      "##ates": 1494,
      "##group": 1495,
      "##0p": 1496,
      "##4g": 1497,
      "be": 1498,
      "##orr": 1499,
      "over": 1500,
      "##3k": 1501,
      "##ism": 1502,
      "##zc": 1503,
      "##4k": 1504,
      "##f7": 1505,
      "##orp": 1506,
      "##son": 1507,
      "##olutions": 1508,
      "##s1": 1509,
      "##o1": 1510,
      "id": 1511,
      "##ork": 1512,
      "##club": 1513,
      "##d8": 1514,
      "##mer": 1515,
      "##n2": 1516,
      "##d9": 1517,
      "##xe": 1518,
      "##d7": 1519,
      "##dq": 1520,
      "##b0": 1521,
      "fir": 1522,
      "op": 1523,
      "##orth": 1524,
      "##iro": 1525,
      "hotel": 1526,
      "tech": 1527,
      "##ush": 1528,
      "##net": 1529,
      "##ero": 1530,
      "##les": 1531,
      "##n3": 1532,
      "##n6": 1533,
      "it": 1534,
      "##f4": 1535,
      "##zs": 1536,
      "##p2": 1537,
      "##osh": 1538,
      "##ness": 1539,
      "##p6": 1540,
      "##f5": 1541,
      "##ement": 1542,
      "##ise": 1543,
      "##ata": 1544,
      "##itch": 1545,
      "##3e": 1546,
      "##ode": 1547,
      "big": 1548,
      "art": 1549,
      "sup": 1550,
      "##mar": 1551,
      "##6e": 1552,
      "##3a": 1553,
      "gl": 1554,
      "##ays": 1555,
      "##adv": 1556,
      "##ines": 1557,
      "man": 1558,
      "##inf": 1559,
      "##aff": 1560,
      "##6a": 1561,
      "##ame": 1562,
      "##xa": 1563,
      "##d4": 1564,
      "squ": 1565,
      "##zq": 1566,
      "##urs": 1567,
      "mon": 1568,
      "##stem": 1569,
      "##amb": 1570,
      "##d5": 1571,
      "at": 1572,
      "##ori": 1573,
      "##zu": 1574,
      "##res": 1575,
      "##edd": 1576,
      "##ile": 1577,
      "om": 1578,
      "##oth": 1579,
      "##row": 1580,
      "##0e": 1581,
      "##arn": 1582,
      "re": 1583,
      "##rod": 1584,
      "##ull": 1585,
      "##5g": 1586,
      "##oft": 1587,
      "##eck": 1588,
      "sa": 1589,
      "##2e": 1590,
      "##erl": 1591,
      "##2a": 1592,
      "of": 1593,
      "##ales": 1594,
      "top": 1595,
      "gu": 1596,
      "1t": 1597,
      "mo": 1598,
      "##alt": 1599,
      "##7g": 1600,
      "##8g": 1601,
      "mag": 1602,
      "##ott": 1603,
      "##lov": 1604,
      "##osm": 1605,
      "##eco": 1606,
      "##uck": 1607,
      "##ervice": 1608,
      "##n1": 1609,
      "##arb": 1610,
      "##ener": 1611,
      "##ean": 1612,
      "##5k": 1613,
      "##9g": 1614,
      "1c": 1615,
      "##t1": 1616,
      "##erk": 1617,
      "##inh": 1618,
      "##4p": 1619,
      "##urn": 1620,
      "sl": 1621,
      "##aphy": 1622,
      "##lobal": 1623,
      "##alk": 1624,
      "tw": 1625,
      "##abr": 1626,
      "##7k": 1627,
      "##4a": 1628,
      "##port": 1629,
      "##ime": 1630,
      "best": 1631,
      "##ake": 1632,
      "ol": 1633,
      "me": 1634,
      "##web": 1635,
      "##2p": 1636,
      "##4e": 1637,
      "##ectr": 1638,
      "##8k": 1639,
      "##arg": 1640,
      "##3p": 1641,
      "ay": 1642,
      "so": 1643,
      "ec": 1644,
      "##9k": 1645,
      "kh": 1646,
      "##chool": 1647,
      "##eph": 1648,
      "##5e": 1649,
      "##alm": 1650,
      "##itt": 1651,
      "##6p": 1652,
      "##load": 1653,
      "##ita": 1654,
      "##5a": 1655,
      "##isc": 1656,
      "##omp": 1657,
      "##o0": 1658,
      "##ium": 1659,
      "##ilo": 1660,
      "##osp": 1661,
      "##s0": 1662,
      "af": 1663,
      "he": 1664,
      "##egr": 1665,
      "##ations": 1666,
      "ak": 1667,
      "ge": 1668,
      "##aus": 1669,
      "##oku": 1670,
      "cas": 1671,
      "##f6": 1672,
      "##ano": 1673,
      "##afe": 1674,
      "bo": 1675,
      "##irl": 1676,
      "##ied": 1677,
      "##ebr": 1678,
      "##store": 1679,
      "squar": 1680,
      "##espace": 1681,
      "##2n": 1682,
      "##aph": 1683,
      "##c1": 1684,
      "##ask": 1685,
      "##isp": 1686,
      "ey": 1687,
      "sim": 1688,
      "ro": 1689,
      "us": 1690,
      "##estaur": 1691,
      "##8p": 1692,
      "##ecr": 1693,
      "##6n": 1694,
      "##olf": 1695,
      "ne": 1696,
      "##f2": 1697,
      "##ator": 1698,
      "1q": 1699,
      "##d2": 1700,
      "##uss": 1701,
      "kl": 1702,
      "squarespace": 1703,
      "##z9": 1704,
      "##amer": 1705,
      "hy": 1706,
      "##uch": 1707,
      "##d6": 1708,
      "##rop": 1709,
      "##z7": 1710,
      "##anh": 1711,
      "##ips": 1712,
      "str": 1713,
      "##z8": 1714,
      "##3n": 1715,
      "red": 1716,
      "##eld": 1717,
      "##otography": 1718,
      "##5p": 1719,
      "##ini": 1720,
      "##esd": 1721,
      "sv": 1722,
      "##4u": 1723,
      "##book": 1724,
      "##ena": 1725,
      "##7e": 1726,
      "##epl": 1727,
      "1s": 1728,
      "##0n": 1729,
      "##f3": 1730,
      "oy": 1731,
      "##0t": 1732,
      "##ence": 1733,
      "##7a": 1734,
      "##arl": 1735,
      "##omes": 1736,
      "##nik": 1737,
      "ma": 1738,
      "##4t": 1739,
      "##9e": 1740,
      "##work": 1741,
      "##los": 1742,
      "##arketing": 1743,
      "##9a": 1744,
      "##lon": 1745,
      "##d3": 1746,
      "ep": 1747,
      "##4n": 1748,
      "##8e": 1749,
      "##8a": 1750,
      "##ivers": 1751,
      "can": 1752,
      "##7p": 1753,
      "##onn": 1754,
      "bi": 1755,
      "##usa": 1756,
      "la": 1757,
      "ok": 1758,
      "##acion": 1759,
      "we": 1760,
      "##ower": 1761,
      "sam": 1762,
      "jim": 1763,
      "##f0": 1764,
      "go": 1765,
      "rad": 1766,
      "##edia": 1767,
      "##anb": 1768,
      "mr": 1769,
      "##tech": 1770,
      "##iew": 1771,
      "##9p": 1772,
      "met": 1773,
      "##udi": 1774,
      "##agr": 1775,
      "##comp": 1776,
      "##spr": 1777,
      "tv": 1778,
      "is": 1779,
      "app": 1780,
      "##ual": 1781,
      "##z5": 1782,
      "chr": 1783,
      "##ures": 1784,
      "aw": 1785,
      "##d0": 1786,
      "##sport": 1787,
      "##ove": 1788,
      "mod": 1789,
      "##g2": 1790,
      "sn": 1791,
      "od": 1792,
      "##g6": 1793,
      "ly": 1794,
      "pa": 1795,
      "##asy": 1796,
      "##w9": 1797,
      "##ane": 1798,
      "ip": 1799,
      "##arts": 1800,
      "min": 1801,
      "##j8": 1802,
      "##enb": 1803,
      "##itr": 1804,
      "no": 1805,
      "um": 1806,
      "iv": 1807,
      "##heal": 1808,
      "##ment": 1809,
      "##k2": 1810,
      "##anm": 1811,
      "##3t": 1812,
      "ry": 1813,
      "##inv": 1814,
      "##ubl": 1815,
      "##g4": 1816,
      "##arch": 1817,
      "##x7": 1818,
      "##z4": 1819,
      "##z2": 1820,
      "##amm": 1821,
      "iy": 1822,
      "##z6": 1823,
      "ny": 1824,
      "##iness": 1825,
      "##ala": 1826,
      "##ibr": 1827,
      "##ika": 1828,
      "##era": 1829,
      "##j7": 1830,
      "##uff": 1831,
      "##k6": 1832,
      "##j9": 1833,
      "##anch": 1834,
      "pol": 1835,
      "##ones": 1836,
      "##iat": 1837,
      "##w5": 1838,
      "ky": 1839,
      "##j5": 1840,
      "##ours": 1841,
      "##aft": 1842,
      "##emp": 1843,
      "##ora": 1844,
      "##g3": 1845,
      "uy": 1846,
      "ic": 1847,
      "##ademy": 1848,
      "kn": 1849,
      "ba": 1850,
      "##g1": 1851,
      "##mun": 1852,
      "##ownload": 1853,
      "##ids": 1854,
      "##z3": 1855,
      "##k1": 1856,
      "##add": 1857,
      "##k4": 1858,
      "##erw": 1859,
      "##umb": 1860,
      "##ebs": 1861,
      "##x8": 1862,
      "ur": 1863,
      "##logy": 1864,
      "cy": 1865,
      "up": 1866,
      "ov": 1867,
      "##x9": 1868,
      "##och": 1869,
      "uk": 1870,
      "sun": 1871,
      "##rol": 1872,
      "##z1": 1873,
      "##sky": 1874,
      "##cons": 1875,
      "##j4": 1876,
      "##otr": 1877,
      "##ree": 1878,
      "##k3": 1879,
      "del": 1880,
      "##t0": 1881,
      "il": 1882,
      "##uel": 1883,
      "##j2": 1884,
      "pe": 1885,
      "##x5": 1886,
      "yy": 1887,
      "##enh": 1888,
      "##w8": 1889,
      "##india": 1890,
      "##oun": 1891,
      "##asm": 1892,
      "##j6": 1893,
      "##arc": 1894,
      "ul": 1895,
      "dy": 1896,
      "##aster": 1897,
      "##oss": 1898,
      "pet": 1899,
      "by": 1900,
      "##rew": 1901,
      "mih": 1902,
      "##asd": 1903,
      "##ational": 1904,
      "res": 1905,
      "di": 1906,
      "##oon": 1907,
      "##istr": 1908,
      "##studio": 1909,
      "online": 1910,
      "##v8": 1911,
      "##asc": 1912,
      "##7n": 1913,
      "##ura": 1914,
      "##5n": 1915,
      "##loud": 1916,
      "##ecl": 1917,
      "dd": 1918,
      "##ores": 1919,
      "##izz": 1920,
      "##x2": 1921,
      "gm": 1922,
      "##oes": 1923,
      "##umm": 1924,
      "##ision": 1925,
      "##ola": 1926,
      "uc": 1927,
      "wr": 1928,
      "##coun": 1929,
      "##ever": 1930,
      "##x4": 1931,
      "##h8": 1932,
      "##aya": 1933,
      "sr": 1934,
      "##tor": 1935,
      "hel": 1936,
      "##h9": 1937,
      "##x6": 1938,
      "##utr": 1939,
      "ef": 1940,
      "##acc": 1941,
      "##w7": 1942,
      "##j3": 1943,
      "sol": 1944,
      "##v9": 1945,
      "##w2": 1946,
      "##p1": 1947,
      "oh": 1948,
      "##0s": 1949,
      "##spl": 1950,
      "if": 1951,
      "bar": 1952,
      "##ado": 1953,
      "py": 1954,
      "##over": 1955,
      "##ext": 1956,
      "##ouse": 1957,
      "##real": 1958,
      "##b1": 1959,
      "##w6": 1960,
      "1u": 1961,
      "mm": 1962,
      "##ler": 1963,
      "##ida": 1964,
      "##ipp": 1965,
      "##exp": 1966,
      "##h7": 1967,
      "##l9": 1968,
      "dan": 1969,
      "##0q": 1970,
      "ob": 1971,
      "##health": 1972,
      "dev": 1973,
      "##x3": 1974,
      "##v7": 1975,
      "##l8": 1976,
      "##usiness": 1977,
      "##m8": 1978,
      "##h5": 1979,
      "##ony": 1980,
      "##2s": 1981,
      "##ior": 1982,
      "##law": 1983,
      "iw": 1984,
      "##iar": 1985,
      "##uan": 1986,
      "##2t": 1987,
      "mat": 1988,
      "##ages": 1989,
      "##w4": 1990,
      "##ova": 1991,
      "##v5": 1992,
      "##m7": 1993,
      "mot": 1994,
      "##apt": 1995,
      "##j1": 1996,
      "##3s": 1997,
      "##erh": 1998,
      "##estaurant": 1999,
      "##ble": 2000,
      "##fit": 2001,
      "dom": 2002,
      "##l7": 2003,
      "##ift": 2004,
      "##ection": 2005,
      "ek": 2006,
      "##inic": 2007,
      "##uis": 2008,
      "##ign": 2009,
      "##iac": 2010,
      "##ugh": 2011,
      "ty": 2012,
      "##ley": 2013,
      "##elm": 2014,
      "##elf": 2015,
      "##101": 2016,
      "##adr": 2017,
      "##4s": 2018,
      "##6t": 2019,
      "##que": 2020,
      "##bar": 2021,
      "eg": 2022,
      "##9n": 2023,
      "##anblog": 2024,
      "##iag": 2025,
      "##ury": 2026,
      "kar": 2027,
      "get": 2028,
      "ow": 2029,
      "jo": 2030,
      "1o": 2031,
      "##erp": 2032,
      "##z0": 2033,
      "##uction": 2034,
      "##alv": 2035,
      "##w1": 2036,
      "pm": 2037,
      "##ene": 2038,
      "##ique": 2039,
      "##onc": 2040,
      "rec": 2041,
      "##l5": 2042,
      "##ere": 2043,
      "do": 2044,
      "##way": 2045,
      "et": 2046,
      "##ete": 2047,
      "eb": 2048,
      "##8n": 2049,
      "su": 2050,
      "wy": 2051,
      "##esm": 2052,
      "##ista": 2053,
      "gy": 2054,
      "##ati": 2055,
      "cam": 2056,
      "##h2": 2057,
      "##v4": 2058,
      "##w3": 2059,
      "##academy": 2060,
      "##h6": 2061,
      "##x1": 2062,
      "##orf": 2063,
      "mic": 2064,
      "##enm": 2065,
      "##alc": 2066,
      "ant": 2067,
      "##h4": 2068,
      "##v6": 2069,
      "ig": 2070,
      "##ittl": 2071,
      "##ali": 2072,
      "po": 2073,
      "##ube": 2074,
      "adv": 2075,
      "san": 2076,
      "ib": 2077,
      "##ject": 2078,
      "wd": 2079,
      "##loc": 2080,
      "hom": 2081,
      "##h3": 2082,
      "aj": 2083,
      "##urv": 2084,
      "##m9": 2085,
      "##world": 2086,
      "ang": 2087,
      "##onf": 2088,
      "##eme": 2089,
      "##anz": 2090,
      "##8t": 2091,
      "rob": 2092,
      "mov": 2093,
      "ah": 2094,
      "##agen": 2095,
      "##v2": 2096,
      "##iver": 2097,
      "##l6": 2098,
      "##imm": 2099,
      "ot": 2100,
      "alt": 2101,
      "##asp": 2102,
      "dav": 2103,
      "##l2": 2104,
      "heroku": 2105,
      "##v3": 2106,
      "uf": 2107,
      "mihanblog": 2108,
      "##wood": 2109,
      "##lab": 2110,
      "herokuapp": 2111,
      "##isk": 2112,
      "##ams": 2113,
      "##let": 2114,
      "hd": 2115,
      "##stud": 2116,
      "##onm": 2117,
      "bu": 2118,
      "ber": 2119,
      "ud": 2120,
      "##irm": 2121,
      "ik": 2122,
      "##elt": 2123,
      "cd": 2124,
      "des": 2125,
      "##idg": 2126,
      "##unn": 2127,
      "##aby": 2128,
      "##ille": 2129,
      "##l4": 2130,
      "sd": 2131,
      "##ition": 2132,
      "##ept": 2133,
      "to": 2134,
      "ta": 2135,
      "cm": 2136,
      "##oci": 2137,
      "exp": 2138,
      "gh": 2139,
      "##r7": 2140,
      "##r9": 2141,
      "##ato": 2142,
      "off": 2143,
      "##ave": 2144,
      "##6s": 2145,
      "rev": 2146,
      "##ply": 2147,
      "##ards": 2148,
      "##ike": 2149,
      "##eauty": 2150,
      "##r8": 2151,
      "##5t": 2152,
      "ka": 2153,
      "##v1": 2154,
      "##inm": 2155,
      "##ands": 2156,
      "##3q": 2157,
      "##h1": 2158,
      "lab": 2159,
      "##enk": 2160,
      "ox": 2161,
      "##ege": 2162,
      "uv": 2163,
      "##eff": 2164,
      "##eel": 2165,
      "##apl": 2166,
      "bd": 2167,
      "##6q": 2168,
      "##uth": 2169,
      "jimdo": 2170,
      "lo": 2171,
      "##m4": 2172,
      "##y7": 2173,
      "eur": 2174,
      "ax": 2175,
      "##l1": 2176,
      "##rov": 2177,
      "##ekt": 2178,
      "##y8": 2179,
      "##anet": 2180,
      "##che": 2181,
      "##edr": 2182,
      "pf": 2183,
      "##asa": 2184,
      "##n0": 2185,
      "##ody": 2186,
      "1i": 2187,
      "hol": 2188,
      "eng": 2189,
      "##l3": 2190,
      "md": 2191,
      "##ule": 2192,
      "##m3": 2193,
      "jy": 2194,
      "##m5": 2195,
      "##opt": 2196,
      "##ute": 2197,
      "world": 2198,
      "na": 2199,
      "es": 2200,
      "uw": 2201,
      "ann": 2202,
      "##ashion": 2203,
      "##iff": 2204,
      "##earch": 2205,
      "##ney": 2206,
      "##alb": 2207,
      "##ela": 2208,
      "##eli": 2209,
      "##ump": 2210,
      "ha": 2211,
      "##k0": 2212,
      "##ose": 2213,
      "##g0": 2214,
      "##erson": 2215,
      "##olution": 2216,
      "##ads": 2217,
      "##enz": 2218,
      "##ape": 2219,
      "##r5": 2220,
      "##ound": 2221,
      "##reg": 2222,
      "##2q": 2223,
      "oj": 2224,
      "##ecur": 2225,
      "bet": 2226,
      "##ole": 2227,
      "yo": 2228,
      "##iot": 2229,
      "ew": 2230,
      "##4q": 2231,
      "##afr": 2232,
      "sal": 2233,
      "##sports": 2234,
      "sf": 2235,
      "##oney": 2236,
      "rm": 2237,
      "esc": 2238,
      "##ira": 2239,
      "##y9": 2240,
      "##ima": 2241,
      "##osd": 2242,
      "tur": 2243,
      "theb": 2244,
      "real": 2245,
      "km": 2246,
      "##ird": 2247,
      "##stit": 2248,
      "vy": 2249,
      "##oftw": 2250,
      "##imp": 2251,
      "##anj": 2252,
      "rh": 2253,
      "ru": 2254,
      "kv": 2255,
      "##center": 2256,
      "ih": 2257,
      "##onsult": 2258,
      "sil": 2259,
      "qy": 2260,
      "##enf": 2261,
      "nm": 2262,
      "##opl": 2263,
      "##iad": 2264,
      "##box": 2265,
      "bh": 2266,
      "ko": 2267,
      "health": 2268,
      "ij": 2269,
      "ym": 2270,
      "##ele": 2271,
      "1e": 2272,
      "fy": 2273,
      "##urch": 2274,
      "og": 2275,
      "##obs": 2276,
      "##r4": 2277,
      "nh": 2278,
      "os": 2279,
      "##ster": 2280,
      "##m2": 2281,
      "##irect": 2282,
      "##ival": 2283,
      "##7t": 2284,
      "##ants": 2285,
      "##elp": 2286,
      "yv": 2287,
      "##ited": 2288,
      "##new": 2289,
      "##0u": 2290,
      "##m6": 2291,
      "##aining": 2292,
      "##ecom": 2293,
      "##lock": 2294,
      "mv": 2295,
      "lov": 2296,
      "jm": 2297,
      "your": 2298,
      "green": 2299,
      "blu": 2300,
      "bro": 2301,
      "xy": 2302,
      "dm": 2303,
      "##ger": 2304,
      "acc": 2305,
      "fin": 2306,
      "har": 2307,
      "mad": 2308,
      "##urr": 2309,
      "##prod": 2310,
      "##now": 2311,
      "##9t": 2312,
      "##iter": 2313,
      "##5s": 2314,
      "da": 2315,
      "mc": 2316,
      "##the": 2317,
      "##pet": 2318,
      "them": 2319,
      "##ehr": 2320,
      "##j0": 2321,
      "##osc": 2322,
      "##5q": 2323,
      "kw": 2324,
      "col": 2325,
      "##2u": 2326,
      "##y4": 2327,
      "zh": 2328,
      "sex": 2329,
      "lm": 2330,
      "ke": 2331,
      "mil": 2332,
      "##r6": 2333,
      "ug": 2334,
      "##p0": 2335,
      "pv": 2336,
      "##news": 2337,
      "1a": 2338,
      "##anf": 2339,
      "soc": 2340,
      "##acy": 2341,
      "##entre": 2342,
      "##r3": 2343,
      "cf": 2344,
      "oz": 2345,
      "##oph": 2346,
      "##ston": 2347,
      "##r1": 2348,
      "dj": 2349,
      "mf": 2350,
      "ff": 2351,
      "##ades": 2352,
      "mu": 2353,
      "##ope": 2354,
      "##inem": 2355,
      "yd": 2356,
      "##ely": 2357,
      "cc": 2358,
      "##ito": 2359,
      "##m1": 2360,
      "##intern": 2361,
      "yf": 2362,
      "##room": 2363,
      "uj": 2364,
      "##r2": 2365,
      "##isl": 2366,
      "##consult": 2367,
      "qm": 2368,
      "##iny": 2369,
      "##rev": 2370,
      "##7s": 2371,
      "eh": 2372,
      "ng": 2373,
      "##7q": 2374,
      "ca": 2375,
      "nv": 2376,
      "##roy": 2377,
      "##123": 2378,
      "ix": 2379,
      "ej": 2380,
      "hu": 2381,
      "fil": 2382,
      "vr": 2383,
      "nw": 2384,
      "hr": 2385,
      "##urt": 2386,
      "##y3": 2387,
      "ux": 2388,
      "yw": 2389,
      "##mov": 2390,
      "not": 2391,
      "joh": 2392,
      "##itz": 2393,
      "##unk": 2394,
      "mp": 2395,
      "##ustr": 2396,
      "rv": 2397,
      "##appy": 2398,
      "##x0": 2399,
      "##8q": 2400,
      "sar": 2401,
      "ub": 2402,
      "##rep": 2403,
      "##roc": 2404,
      "##iem": 2405,
      "##9q": 2406,
      "sz": 2407,
      "oc": 2408,
      "uh": 2409,
      "##8s": 2410,
      "cal": 2411,
      "##star": 2412,
      "##2o": 2413,
      "##ady": 2414,
      "##9s": 2415,
      "cap": 2416,
      "rf": 2417,
      "gd": 2418,
      "dh": 2419,
      "##care": 2420,
      "ho": 2421,
      "##eric": 2422,
      "ps": 2423,
      "##y5": 2424,
      "fm": 2425,
      "nf": 2426,
      "hm": 2427,
      "df": 2428,
      "##cont": 2429,
      "mak": 2430,
      "##f1": 2431,
      "nd": 2432,
      "lv": 2433,
      "##ball": 2434,
      "td": 2435,
      "##0o": 2436,
      "ut": 2437,
      "##ami": 2438,
      "pd": 2439,
      "pw": 2440,
      "##house": 2441,
      "##ating": 2442,
      "##apy": 2443,
      "ros": 2444,
      "hot": 2445,
      "bm": 2446,
      "air": 2447,
      "11": 2448,
      "##ius": 2449,
      "##system": 2450,
      "##asil": 2451,
      "##edit": 2452,
      "##urew": 2453,
      "mj": 2454,
      "##adm": 2455,
      "mw": 2456,
      "##y6": 2457,
      "##y2": 2458,
      "thes": 2459,
      "nj": 2460,
      "##d1": 2461,
      "nr": 2462,
      "##key": 2463,
      "##fil": 2464,
      "##photography": 2465,
      "qw": 2466,
      "##abb": 2467,
      "iz": 2468,
      "##urf": 2469,
      "vm": 2470,
      "##igr": 2471,
      "max": 2472,
      "nov": 2473,
      "sj": 2474,
      "##design": 2475,
      "##asi": 2476,
      "rw": 2477,
      "##omb": 2478,
      "wm": 2479,
      "dv": 2480,
      "##nam": 2481,
      "fd": 2482,
      "##ific": 2483,
      "vis": 2484,
      "##y1": 2485,
      "##6o": 2486,
      "##sup": 2487,
      "##pres": 2488,
      "port": 2489,
      "##obr": 2490,
      "##ucc": 2491,
      "christ": 2492,
      "club": 2493,
      "##alf": 2494,
      "mk": 2495,
      "gw": 2496,
      "meg": 2497,
      "##esigns": 2498,
      "kf": 2499,
      "##elb": 2500,
      "##atl": 2501,
      "##3o": 2502,
      "##ares": 2503,
      "just": 2504,
      "rr": 2505,
      "yj": 2506,
      "yx": 2507,
      "ra": 2508,
      "bf": 2509,
      "kd": 2510,
      "qv": 2511,
      "##3u": 2512,
      "##acr": 2513,
      "jp": 2514,
      "##ote": 2515,
      "cor": 2516,
      "ass": 2517,
      "##w0": 2518,
      "jd": 2519,
      "lf": 2520,
      "##reet": 2521,
      "##ues": 2522,
      "tran": 2523,
      "pp": 2524,
      "##opp": 2525,
      "tim": 2526,
      "rd": 2527,
      "##uit": 2528,
      "mg": 2529,
      "##omm": 2530,
      "inv": 2531,
      "##electr": 2532,
      "##6u": 2533,
      "yr": 2534,
      "##ayd": 2535,
      "##ights": 2536,
      "xm": 2537,
      "vl": 2538,
      "comp": 2539,
      "mb": 2540,
      "##arden": 2541,
      "##ering": 2542,
      "##oys": 2543,
      "pc": 2544,
      "tf": 2545,
      "hv": 2546,
      "ld": 2547,
      "pj": 2548,
      "##oga": 2549,
      "##lub": 2550,
      "##lot": 2551,
      "mus": 2552,
      "yh": 2553,
      "jr": 2554,
      "mal": 2555,
      "jf": 2556,
      "sg": 2557,
      "est": 2558,
      "##aven": 2559,
      "##ieg": 2560,
      "qr": 2561,
      "##iva": 2562,
      "##emo": 2563,
      "mh": 2564,
      "##0i": 2565,
      "##chr": 2566,
      "##onic": 2567,
      "global": 2568,
      "##print": 2569,
      "##ety": 2570,
      "ins": 2571,
      "bb": 2572,
      "cv": 2573,
      "ml": 2574,
      "##por": 2575,
      "west": 2576,
      "##aym": 2577,
      "vir": 2578,
      "les": 2579,
      "##plus": 2580,
      "gold": 2581,
      "tj": 2582,
      "jv": 2583,
      "digital": 2584,
      "##rob": 2585,
      "##ives": 2586,
      "reg": 2587,
      "rj": 2588,
      "vv": 2589,
      "##ple": 2590,
      "dw": 2591,
      "##ols": 2592,
      "##cho": 2593,
      "##iving": 2594,
      "##isd": 2595,
      "##cart": 2596,
      "##alh": 2597,
      "##aca": 2598,
      "##5u": 2599,
      "##lom": 2600,
      "##enl": 2601,
      "jw": 2602,
      "alex": 2603,
      "ll": 2604,
      "tel": 2605,
      "##aly": 2606,
      "##ots": 2607,
      "ver": 2608,
      "mas": 2609,
      "lr": 2610,
      "##host": 2611,
      "du": 2612,
      "##anp": 2613,
      "##oro": 2614,
      "##env": 2615,
      "vw": 2616,
      "##ship": 2617,
      "ww": 2618,
      "##rof": 2619,
      "##efr": 2620,
      "jh": 2621,
      "##ebase": 2622,
      "##4o": 2623,
      "ez": 2624,
      "ts": 2625,
      "##esk": 2626,
      "gf": 2627,
      "##alley": 2628,
      "##spa": 2629,
      "##anl": 2630,
      "##v0": 2631,
      "##019": 2632,
      "##amar": 2633,
      "##met": 2634,
      "##school": 2635,
      "vd": 2636,
      "##apar": 2637,
      "##inb": 2638,
      "##iki": 2639,
      "jj": 2640,
      "##ona": 2641,
      "hf": 2642,
      "lw": 2643,
      "qf": 2644,
      "bel": 2645,
      "##onb": 2646,
      "mx": 2647,
      "##lod": 2648,
      "##ebsites": 2649,
      "##owl": 2650,
      "##emb": 2651,
      "north": 2652,
      "##oor": 2653,
      "sout": 2654,
      "##e11": 2655,
      "##5o": 2656,
      "##ota": 2657,
      "vf": 2658,
      "##gar": 2659,
      "##educ": 2660,
      "##ider": 2661,
      "fit": 2662,
      "##aper": 2663,
      "qd": 2664,
      "mir": 2665,
      "lj": 2666,
      "cb": 2667,
      "tec": 2668,
      "lif": 2669,
      "##iya": 2670,
      "##6i": 2671,
      "px": 2672,
      "##h0": 2673,
      "##oods": 2674,
      "tx": 2675,
      "kp": 2676,
      "##2i": 2677,
      "##ner": 2678,
      "##l0": 2679,
      "rp": 2680,
      "##onv": 2681,
      "##adi": 2682,
      "##icks": 2683,
      "##7u": 2684,
      "##otor": 2685,
      "rem": 2686,
      "##andr": 2687,
      "sx": 2688,
      "##lim": 2689,
      "log": 2690,
      "##3i": 2691,
      "wf": 2692,
      "##9u": 2693,
      "kj": 2694,
      "roz": 2695,
      "sb": 2696,
      "##4i": 2697,
      "##7o": 2698,
      "##oms": 2699,
      "por": 2700,
      "##aps": 2701,
      "##eds": 2702,
      "firebase": 2703,
      "inn": 2704,
      "per": 2705,
      "imm": 2706,
      "##ces": 2707,
      "cp": 2708,
      "##inet": 2709,
      "##travel": 2710,
      "##edi": 2711,
      "##isa": 2712,
      "thec": 2713,
      "cont": 2714,
      "hw": 2715,
      "##8u": 2716,
      "##view": 2717,
      "##media": 2718,
      "rx": 2719,
      "##akt": 2720,
      "xv": 2721,
      "tl": 2722,
      "out": 2723,
      "fa": 2724,
      "firebaseapp": 2725,
      "trip": 2726,
      "act": 2727,
      "##ideo": 2728,
      "gv": 2729,
      "qj": 2730,
      "natur": 2731,
      "luc": 2732,
      "fx": 2733,
      "leg": 2734,
      "mor": 2735,
      "nx": 2736,
      "yl": 2737,
      "wv": 2738,
      "##can": 2739,
      "bg": 2740,
      "##olk": 2741,
      "pk": 2742,
      "xf": 2743,
      "##ham": 2744,
      "##avi": 2745,
      "##9o": 2746,
      "bw": 2747,
      "##utt": 2748,
      "bj": 2749,
      "##rok": 2750,
      "wp": 2751,
      "##eny": 2752,
      "db": 2753,
      "##ebe": 2754,
      "tk": 2755,
      "##8o": 2756,
      "##5i": 2757,
      "np": 2758,
      "dl": 2759,
      "cw": 2760,
      "xd": 2761,
      "ser": 2762,
      "azurew": 2763,
      "##sty": 2764,
      "azurewebsites": 2765,
      "tp": 2766,
      "##andm": 2767,
      "fe": 2768,
      "##try": 2769,
      "##isch": 2770,
      "nl": 2771,
      "##aco": 2772,
      "##eria": 2773,
      "##nolog": 2774,
      "##ield": 2775,
      "kk": 2776,
      "##eta": 2777,
      "gam": 2778,
      "##m0": 2779,
      "##not": 2780,
      "##idd": 2781,
      "##thing": 2782,
      "ms": 2783,
      "##agu": 2784,
      "##iom": 2785,
      "##eak": 2786,
      "dc": 2787,
      "##info": 2788,
      "##018": 2789,
      "##efl": 2790,
      "lx": 2791,
      "##ading": 2792,
      "hp": 2793,
      "##eno": 2794,
      "lh": 2795,
      "hh": 2796,
      "##edf": 2797,
      "yk": 2798,
      "group": 2799,
      "qx": 2800,
      "##ados": 2801,
      "vo": 2802,
      "##arp": 2803,
      "##spir": 2804,
      "##llc": 2805,
      "arch": 2806,
      "book": 2807,
      "doc": 2808,
      "hk": 2809,
      "fun": 2810,
      "fb": 2811,
      "yg": 2812,
      "jx": 2813,
      "##abs": 2814,
      "##119": 2815,
      "##uld": 2816,
      "##aba": 2817,
      "##tra": 2818,
      "##inj": 2819,
      "##118": 2820,
      "##andb": 2821,
      "##ops": 2822,
      "##stor": 2823,
      "80": 2824,
      "fw": 2825,
      "ther": 2826,
      "##enw": 2827,
      "bc": 2828,
      "bv": 2829,
      "xx": 2830,
      "yp": 2831,
      "uz": 2832,
      "rl": 2833,
      "ju": 2834,
      "##ago": 2835,
      "nk": 2836,
      "rk": 2837,
      "gp": 2838,
      "##atic": 2839,
      "##elv": 2840,
      "##iph": 2841,
      "##rec": 2842,
      "fv": 2843,
      "qh": 2844,
      "kx": 2845,
      "##life": 2846,
      "##ude": 2847,
      "##sof": 2848,
      "lu": 2849,
      "##ther": 2850,
      "xw": 2851,
      "##7i": 2852,
      "mn": 2853,
      "##alp": 2854,
      "grup": 2855,
      "hj": 2856,
      "pg": 2857,
      "##onh": 2858,
      "lp": 2859,
      "sky": 2860,
      "nn": 2861,
      "##oday": 2862,
      "yb": 2863,
      "##eda": 2864,
      "##ula": 2865,
      "##rey": 2866,
      "##istor": 2867,
      "##ahr": 2868,
      "ben": 2869,
      "fc": 2870,
      "##11d": 2871,
      "cs": 2872,
      "##eman": 2873,
      "##icial": 2874,
      "vk": 2875,
      "wx": 2876,
      "jl": 2877,
      "##ects": 2878,
      "##9i": 2879,
      "vj": 2880,
      "xr": 2881,
      "gx": 2882,
      "gen": 2883,
      "fj": 2884,
      "##abd": 2885,
      "imp": 2886,
      "nb": 2887,
      "##urb": 2888,
      "##iner": 2889,
      "##cam": 2890,
      "bit": 2891,
      "##8i": 2892,
      "##mag": 2893,
      "##abe": 2894,
      "good": 2895,
      "design": 2896,
      "zy": 2897,
      "ql": 2898,
      "buy": 2899,
      "je": 2900,
      "##form": 2901,
      "wil": 2902,
      "##isb": 2903,
      "##adg": 2904,
      "##ecor": 2905,
      "cn": 2906,
      "qp": 2907,
      "##ange": 2908,
      "hx": 2909,
      "##sph": 2910,
      "rg": 2911,
      "##lif": 2912,
      "wj": 2913,
      "tg": 2914,
      "##rog": 2915,
      "##r0": 2916,
      "##ather": 2917,
      "##iol": 2918,
      "##11f": 2919,
      "##ily": 2920,
      "tc": 2921,
      "nu": 2922,
      "##ede": 2923,
      "##upd": 2924,
      "##imal": 2925,
      "tom": 2926,
      "##365": 2927,
      "##aka": 2928,
      "##y0": 2929,
      "vh": 2930,
      "##117": 2931,
      "##uns": 2932,
      "vp": 2933,
      "##adb": 2934,
      "##lop": 2935,
      "val": 2936,
      "##aty": 2937,
      "mid": 2938,
      "gal": 2939,
      "thep": 2940,
      "##apan": 2941,
      "rc": 2942,
      "cj": 2943,
      "##iec": 2944,
      "##tim": 2945,
      "vill": 2946,
      "bal": 2947,
      "opt": 2948,
      "roy": 2949,
      "nc": 2950,
      "pb": 2951,
      "lk": 2952,
      "fh": 2953,
      "gj": 2954,
      "##onk": 2955,
      "##eks": 2956,
      "##osa": 2957,
      "rb": 2958,
      "lin": 2959,
      "qk": 2960,
      "##ava": 2961,
      "xj": 2962,
      "##aro": 2963,
      "##edb": 2964,
      "hl": 2965,
      "jk": 2966,
      "##ows": 2967,
      "##ski": 2968,
      "##irt": 2969,
      "xh": 2970,
      "ga": 2971,
      "vx": 2972,
      "##100": 2973,
      "##adel": 2974,
      "##company": 2975,
      "##114": 2976,
      "eu": 2977,
      "##acks": 2978,
      "cat": 2979,
      "wl": 2980,
      "loc": 2981,
      "##acl": 2982,
      "##nic": 2983,
      "##ils": 2984,
      "##aria": 2985,
      "##hous": 2986,
      "lg": 2987,
      "saf": 2988,
      "##scr": 2989,
      "##arv": 2990,
      "##adf": 2991,
      "cx": 2992,
      "##ucts": 2993,
      "aa": 2994,
      "yu": 2995,
      "##110": 2996,
      "kg": 2997,
      "##ipl": 2998,
      "cod": 2999,
      "nat": 3000,
      "##415": 3001,
      "jb": 3002,
      "##tyl": 3003,
      "xp": 3004,
      "##ief": 3005,
      "##aker": 3006,
      "king": 3007,
      "kb": 3008,
      "##sth": 3009,
      "travel": 3010,
      "##edg": 3011,
      "##cial": 3012,
      "##aza": 3013,
      "mer": 3014,
      "yc": 3015,
      "pn": 3016,
      "cry": 3017,
      "don": 3018,
      "##ipt": 3019,
      "##orb": 3020,
      "dx": 3021,
      "cg": 3022,
      "tu": 3023,
      "##ustom": 3024,
      "##enr": 3025,
      "hb": 3026,
      "##oda": 3027,
      "##opy": 3028,
      "##uts": 3029,
      "##edm": 3030,
      "##cartel": 3031,
      "ash": 3032,
      "##iab": 3033,
      "cu": 3034,
      "gb": 3035,
      "nic": 3036,
      "##una": 3037,
      "##iend": 3038,
      "##isi": 3039,
      "##orc": 3040,
      "centr": 3041,
      "##hol": 3042,
      "##urk": 3043,
      "##115": 3044,
      "inc": 3045,
      "##uro": 3046,
      "tb": 3047,
      "##a17": 3048,
      "bigcartel": 3049,
      "##ecc": 3050,
      "lb": 3051,
      "##emy": 3052,
      "##ieb": 3053,
      "ce": 3054,
      "##esl": 3055,
      "##war": 3056,
      "dg": 3057,
      "qg": 3058,
      "##etm": 3059,
      "tn": 3060,
      "mt": 3061,
      "##occ": 3062,
      "##uctions": 3063,
      "##uru": 3064,
      "mac": 3065,
      "gg": 3066,
      "##eto": 3067,
      "##ench": 3068,
      "pt": 3069,
      "##iaj": 3070,
      "##roj": 3071,
      "##ahm": 3072,
      "##olv": 3073,
      "##ema": 3074,
      "theg": 3075,
      "##awa": 3076,
      "vg": 3077,
      "##utor": 3078,
      "##ese": 3079,
      "##ikk": 3080,
      "##112": 3081,
      "##ious": 3082,
      "xl": 3083,
      "##awy": 3084,
      "iq": 3085,
      "rep": 3086,
      "##akh": 3087,
      "##urd": 3088,
      "##oni": 3089,
      "##azz": 3090,
      "pan": 3091,
      "##estival": 3092,
      "##olt": 3093,
      "kat": 3094,
      "##edu": 3095,
      "serv": 3096,
      "##estr": 3097,
      "pod": 3098,
      "##upp": 3099,
      "##esf": 3100,
      "##inp": 3101,
      "bx": 3102,
      "prod": 3103,
      "##ison": 3104,
      "##asl": 3105,
      "##aku": 3106,
      "##odel": 3107,
      "##116": 3108,
      "##ross": 3109,
      "##enp": 3110,
      "ss": 3111,
      "##anv": 3112,
      "##atm": 3113,
      "##eys": 3114,
      "bk": 3115,
      "creat": 3116,
      "##aks": 3117,
      "##earn": 3118,
      "##struction": 3119,
      "##arf": 3120,
      "yz": 3121,
      "pur": 3122,
      "##ofm": 3123,
      "dk": 3124,
      "##coll": 3125,
      "##apital": 3126,
      "ku": 3127,
      "##ila": 3128,
      "##ems": 3129,
      "music": 3130,
      "dp": 3131,
      "oq": 3132,
      "##ason": 3133,
      "##osk": 3134,
      "##iev": 3135,
      "gk": 3136,
      "##oman": 3137,
      "##aces": 3138,
      "##iles": 3139,
      "##asv": 3140,
      "wa": 3141,
      "##ohn": 3142,
      "##elh": 3143,
      "ou": 3144,
      "##imb": 3145,
      "hg": 3146,
      "ya": 3147,
      "##cle": 3148,
      "##osy": 3149,
      "intern": 3150,
      "##eep": 3151,
      "jg": 3152,
      "##oftware": 3153,
      "cle": 3154,
      "##akes": 3155,
      "##ums": 3156,
      "yn": 3157,
      "##alg": 3158,
      "##asb": 3159,
      "camp": 3160,
      "jc": 3161,
      "##omen": 3162,
      "##une": 3163,
      "##inter": 3164,
      "wg": 3165,
      "##ims": 3166,
      "lib": 3167,
      "##ogl": 3168,
      "##eter": 3169,
      "##360": 3170,
      "##arth": 3171,
      "##uto": 3172,
      "##emm": 3173,
      "##ebd": 3174,
      "##ewel": 3175,
      "##inl": 3176,
      "##ador": 3177,
      "##ili": 3178,
      "##itm": 3179,
      "kc": 3180,
      "littl": 3181,
      "wk": 3182,
      "ck": 3183,
      "##eau": 3184,
      "##erry": 3185,
      "##ivo": 3186,
      "##irr": 3187,
      "##agl": 3188,
      "##olar": 3189,
      "ban": 3190,
      "##lof": 3191,
      "blac": 3192,
      "##urm": 3193,
      "coll": 3194,
      "rs": 3195,
      "gre": 3196,
      "vb": 3197,
      "rn": 3198,
      "##enj": 3199,
      "##eca": 3200,
      "##express": 3201,
      "##oly": 3202,
      "fp": 3203,
      "ja": 3204,
      "##uls": 3205,
      "##iah": 3206,
      "##edc": 3207,
      "au": 3208,
      "ye": 3209,
      "##iap": 3210,
      "##usm": 3211,
      "##ecial": 3212,
      "mobil": 3213,
      "##berg": 3214,
      "##amily": 3215,
      "##url": 3216,
      "aqu": 3217,
      "alm": 3218,
      "fk": 3219,
      "zd": 3220,
      "spr": 3221,
      "##ader": 3222,
      "stud": 3223,
      "lc": 3224,
      "##other": 3225,
      "##olm": 3226,
      "##irk": 3227,
      "##tran": 3228,
      "##113": 3229,
      "webs": 3230,
      "land": 3231,
      "##c19": 3232,
      "##oma": 3233,
      "va": 3234,
      "dis": 3235,
      "##anr": 3236,
      "##acd": 3237,
      "hc": 3238,
      "##arh": 3239,
      "gc": 3240,
      "##ello": 3241,
      "pat": 3242,
      "ae": 3243,
      "##ref": 3244,
      "vs": 3245,
      "fu": 3246,
      "##azine": 3247,
      "##onr": 3248,
      "##afd": 3249,
      "##wit": 3250,
      "dat": 3251,
      "qn": 3252,
      "pu": 3253,
      "xg": 3254,
      "##clean": 3255,
      "vn": 3256,
      "sav": 3257,
      "ast": 3258,
      "##agement": 3259,
      "##ulf": 3260,
      "gn": 3261,
      "##onp": 3262,
      "##asf": 3263,
      "##esb": 3264,
      "##agh": 3265,
      "thew": 3266,
      "may": 3267,
      "theh": 3268,
      "##otech": 3269,
      "qb": 3270,
      "##itchen": 3271,
      "##edy": 3272,
      "cz": 3273,
      "ua": 3274,
      "##ishing": 3275,
      "netl": 3276,
      "##eland": 3277,
      "gar": 3278,
      "dz": 3279,
      "##anw": 3280,
      "fg": 3281,
      "##168": 3282,
      "##lob": 3283,
      "##etic": 3284,
      "##ido": 3285,
      "ln": 3286,
      "##eshop": 3287,
      "thef": 3288,
      "##ioc": 3289,
      "##eet": 3290,
      "##ouch": 3291,
      "uq": 3292,
      "##icy": 3293,
      "##allery": 3294,
      "lux": 3295,
      "##unc": 3296,
      "##ella": 3297,
      "##ated": 3298,
      "##ington": 3299,
      "test": 3300,
      "xb": 3301,
      "##fre": 3302,
      "##aman": 3303,
      "##iop": 3304,
      "dn": 3305,
      "##urnit": 3306,
      "##estate": 3307,
      "##aki": 3308,
      "##egy": 3309,
      "arm": 3310,
      "bab": 3311,
      "wb": 3312,
      "gt": 3313,
      "##perty": 3314,
      "netlify": 3315,
      "atl": 3316,
      "##eva": 3317,
      "dar": 3318,
      "##inas": 3319,
      "##icl": 3320,
      "dig": 3321,
      "##ize": 3322,
      "##ient": 3323,
      "##amd": 3324,
      "##idad": 3325,
      "mah": 3326,
      "##orl": 3327,
      "##oom": 3328,
      "happy": 3329,
      "##ste": 3330,
      "bp": 3331,
      "jul": 3332,
      "nz": 3333,
      "##elle": 3334,
      "##icm": 3335,
      "son": 3336,
      "xk": 3337,
      "mz": 3338,
      "##ament": 3339,
      "##invest": 3340,
      "##oli": 3341,
      "##ulm": 3342,
      "pal": 3343,
      "rozblog": 3344,
      "##love": 3345,
      "ks": 3346,
      "##uny": 3347,
      "ever": 3348,
      "##anda": 3349,
      "##414": 3350,
      "##inal": 3351,
      "##017": 3352,
      "##icc": 3353,
      "##epro": 3354,
      "##inr": 3355,
      "##ocr": 3356,
      "jn": 3357,
      "vc": 3358,
      "##akk": 3359,
      "wik": 3360,
      "kam": 3361,
      "wc": 3362,
      "##isf": 3363,
      "##ecurity": 3364,
      "##cast": 3365,
      "star": 3366,
      "dream": 3367,
      "nt": 3368,
      "##ingd": 3369,
      "##works": 3370,
      "pin": 3371,
      "##eni": 3372,
      "##ayl": 3373,
      "##usk": 3374,
      "mik": 3375,
      "city": 3376,
      "##otos": 3377,
      "ea": 3378,
      "lat": 3379,
      "##ebook": 3380,
      "##onw": 3381,
      "##quip": 3382,
      "##ahn": 3383,
      "##imo": 3384,
      "hn": 3385,
      "##events": 3386,
      "zw": 3387,
      "xc": 3388,
      "lac": 3389,
      "sant": 3390,
      "##ofr": 3391,
      "eq": 3392,
      "##top": 3393,
      "##odr": 3394,
      "ent": 3395,
      "##o11": 3396,
      "##hom": 3397,
      "ret": 3398,
      "mis": 3399,
      "prof": 3400,
      "##ayb": 3401,
      "##ilk": 3402,
      "##izza": 3403,
      "##osl": 3404,
      "##611": 3405,
      "##ester": 3406,
      "##oul": 3407,
      "##aga": 3408,
      "##orw": 3409,
      "qc": 3410,
      "##abf": 3411,
      "##esa": 3412,
      "dog": 3413,
      "##irls": 3414,
      "how": 3415,
      "win": 3416,
      "bat": 3417,
      "old": 3418,
      "##elk": 3419,
      "##loy": 3420,
      "##engine": 3421,
      "##illa": 3422,
      "uu": 3423,
      "##adh": 3424,
      "##ega": 3425,
      "##311": 3426,
      "##acf": 3427,
      "pz": 3428,
      "##econ": 3429,
      "##roid": 3430,
      "##afa": 3431,
      "##axis": 3432,
      "blogsky": 3433,
      "##odd": 3434,
      "##epar": 3435,
      "onlin": 3436,
      "##erman": 3437,
      "##omy": 3438,
      "##ingm": 3439,
      "americ": 3440,
      "bas": 3441,
      "tok": 3442,
      "##play": 3443,
      "##event": 3444,
      "##associ": 3445,
      "den": 3446,
      "##211": 3447,
      "##esy": 3448,
      "fn": 3449,
      "##atb": 3450,
      "yt": 3451,
      "##isy": 3452,
      "##ords": 3453,
      "mart": 3454,
      "##del": 3455,
      "##011": 3456,
      "##iek": 3457,
      "##orv": 3458,
      "##alia": 3459,
      "zm": 3460,
      "##oco": 3461,
      "##alon": 3462,
      "sof": 3463,
      "##411": 3464,
      "cent": 3465,
      "qq": 3466,
      "##inger": 3467,
      "ve": 3468,
      "##ills": 3469,
      "##iov": 3470,
      "##adio": 3471,
      "##uter": 3472,
      "tt": 3473,
      "##ecd": 3474,
      "##uzz": 3475,
      "rt": 3476,
      "##clinic": 3477,
      "##tle": 3478,
      "##bet": 3479,
      "ct": 3480,
      "##agn": 3481,
      "##ibl": 3482,
      "##edding": 3483,
      "##aid": 3484,
      "##upl": 3485,
      "sub": 3486,
      "##ebel": 3487,
      "##ebo": 3488,
      "js": 3489,
      "##akl": 3490,
      "##ayn": 3491,
      "ham": 3492,
      "ee": 3493,
      "viv": 3494,
      "download": 3495,
      "ht": 3496,
      "##i15": 3497,
      "##even": 3498,
      "zv": 3499,
      "store": 3500,
      "##insur": 3501,
      "iu": 3502,
      "som": 3503,
      "##ayf": 3504,
      "##udd": 3505,
      "##edo": 3506,
      "##aily": 3507,
      "##iko": 3508,
      "##international": 3509,
      "tz": 3510,
      "##olas": 3511,
      "##oke": 3512,
      "##igo": 3513,
      "##ager": 3514,
      "##tners": 3515,
      "kz": 3516,
      "##emd": 3517,
      "ia": 3518,
      "tak": 3519,
      "ie": 3520,
      "##ilt": 3521,
      "esp": 3522,
      "aq": 3523,
      "yq": 3524,
      "##lok": 3525,
      "##isw": 3526,
      "rz": 3527,
      "##inw": 3528,
      "##ices": 3529,
      "sel": 3530,
      "##eller": 3531,
      "##inder": 3532,
      "##911": 3533,
      "ren": 3534,
      "##gram": 3535,
      "##ipr": 3536,
      "##epp": 3537,
      "##usp": 3538,
      "##iod": 3539,
      "fut": 3540,
      "oe": 3541,
      "##entist": 3542,
      "##inan": 3543,
      "##ette": 3544,
      "##energy": 3545,
      "##abc": 3546,
      "##1af": 3547,
      "gz": 3548,
      "##api": 3549,
      "##ultur": 3550,
      "##asr": 3551,
      "##road": 3552,
      "##post": 3553,
      "law": 3554,
      "##irs": 3555,
      "jos": 3556,
      "##opm": 3557,
      "pq": 3558,
      "##itor": 3559,
      "news": 3560,
      "##east": 3561,
      "##city": 3562,
      "kt": 3563,
      "bon": 3564,
      "##agon": 3565,
      "bn": 3566,
      "##akr": 3567,
      "ns": 3568,
      "##eln": 3569,
      "far": 3570,
      "ds": 3571,
      "stor": 3572,
      "sur": 3573,
      "wn": 3574,
      "##etv": 3575,
      "sq": 3576,
      "##efd": 3577,
      "##igm": 3578,
      "##eder": 3579,
      "##ags": 3580,
      "##itl": 3581,
      "##apa": 3582,
      "prem": 3583,
      "team": 3584,
      "electr": 3585,
      "##ofl": 3586,
      "##reek": 3587,
      "##014": 3588,
      "div": 3589,
      "david": 3590,
      "bay": 3591,
      "sand": 3592,
      "##engl": 3593,
      "##iti": 3594,
      "##aching": 3595,
      "auto": 3596,
      "##osv": 3597,
      "oo": 3598,
      "cel": 3599,
      "che": 3600,
      "lz": 3601,
      "ys": 3602,
      "##ume": 3603,
      "mel": 3604,
      "##emin": 3605,
      "##247": 3606,
      "##exc": 3607,
      "##arma": 3608,
      "##eym": 3609,
      "##511": 3610,
      "##usc": 3611,
      "inst": 3612,
      "io": 3613,
      "gs": 3614,
      "qz": 3615,
      "##ulo": 3616,
      "##efor": 3617,
      "sen": 3618,
      "##ono": 3619,
      "##ando": 3620,
      "##anic": 3621,
      "##okr": 3622,
      "fo": 3623,
      "ric": 3624,
      "##iaw": 3625,
      "bt": 3626,
      "##aser": 3627,
      "psy": 3628,
      "der": 3629,
      "##atv": 3630,
      "##egu": 3631,
      "##haus": 3632,
      "##esv": 3633,
      "##ikh": 3634,
      "bre": 3635,
      "##nov": 3636,
      "ue": 3637,
      "isl": 3638,
      "und": 3639,
      "##osf": 3640,
      "smart": 3641,
      "swe": 3642,
      "##atd": 3643,
      "##pol": 3644,
      "##ecf": 3645,
      "##igu": 3646,
      "thed": 3647,
      "##ugg": 3648,
      "oa": 3649,
      "##aha": 3650,
      "studio": 3651,
      "##iaf": 3652,
      "##icr": 3653,
      "zf": 3654,
      "hz": 3655,
      "##ulk": 3656,
      "hs": 3657,
      "##esth": 3658,
      "##ecy": 3659,
      "##unm": 3660,
      "##ingt": 3661,
      "prim": 3662,
      "jz": 3663,
      "##ibe": 3664,
      "##hor": 3665,
      "##roll": 3666,
      "blo": 3667,
      "tour": 3668,
      "##ellness": 3669,
      "##asg": 3670,
      "tot": 3671,
      "##ece": 3672,
      "wo": 3673,
      "##atk": 3674,
      "ze": 3675,
      "mq": 3676,
      "##ante": 3677,
      "dem": 3678,
      "##unj": 3679,
      "##irg": 3680,
      "##entures": 3681,
      "##amy": 3682,
      "rq": 3683,
      "##usd": 3684,
      "##ebf": 3685,
      "##eblog": 3686,
      "##etics": 3687,
      "##ayt": 3688,
      "han": 3689,
      "##711": 3690,
      "##agg": 3691,
      "##chi": 3692,
      "tar": 3693,
      "school": 3694,
      "100": 3695,
      "pen": 3696,
      "super": 3697,
      "let": 3698,
      "##elc": 3699,
      "##016": 3700,
      "##ingen": 3701,
      "##ekl": 3702,
      "##ieh": 3703,
      "kir": 3704,
      "perf": 3705,
      "##onlin": 3706,
      "##agency": 3707,
      "pop": 3708,
      "zj": 3709,
      "##015": 3710,
      "gol": 3711,
      "##ebb": 3712,
      "nq": 3713,
      "jac": 3714,
      "##inth": 3715,
      "##1ab": 3716,
      "##uly": 3717,
      "##uri": 3718,
      "##anal": 3719,
      "##icd": 3720,
      "hor": 3721,
      "##ofd": 3722,
      "##ska": 3723,
      "##ofth": 3724,
      "##aver": 3725,
      "##ayh": 3726,
      "bs": 3727,
      "##a11": 3728,
      "rel": 3729,
      "##orh": 3730,
      "zz": 3731,
      "##eps": 3732,
      "##untain": 3733,
      "##irc": 3734,
      "det": 3735,
      "sport": 3736,
      "##ilg": 3737,
      "##otm": 3738,
      "##1ef": 3739,
      "##adc": 3740,
      "##188": 3741,
      "lt": 3742,
      "##313": 3743,
      "##18d": 3744,
      "##idy": 3745,
      "tor": 3746,
      "##isr": 3747,
      "##church": 3748,
      "##isv": 3749,
      "##ikm": 3750,
      "##ups": 3751,
      "##12d": 3752,
      "##12f": 3753,
      "##class": 3754,
      "##1ac": 3755,
      "##uba": 3756,
      "##10d": 3757,
      "##eve": 3758,
      "hq": 3759,
      "tex": 3760,
      "##ides": 3761,
      "##inds": 3762,
      "##isn": 3763,
      "##ogo": 3764,
      "##iep": 3765,
      "##unl": 3766,
      "##811": 3767,
      "char": 3768,
      "##round": 3769,
      "lq": 3770,
      "##ayr": 3771,
      "##ikr": 3772,
      "kim": 3773,
      "##edl": 3774,
      "##onj": 3775,
      "##show": 3776,
      "##gam": 3777,
      "alb": 3778,
      "ao": 3779,
      "tripod": 3780,
      "##edw": 3781,
      "tq": 3782,
      "ls": 3783,
      "##angel": 3784,
      "##2019": 3785,
      "##ahl": 3786,
      "##udy": 3787,
      "##asn": 3788,
      "##consulting": 3789,
      "##abil": 3790,
      "wood": 3791,
      "roc": 3792,
      "##18f": 3793,
      "##able": 3794,
      "##afl": 3795,
      "fly": 3796,
      "##training": 3797,
      "##eka": 3798,
      "##eyd": 3799,
      "ter": 3800,
      "vz": 3801,
      "##asw": 3802,
      "##osr": 3803,
      "##irv": 3804,
      "##uma": 3805,
      "qt": 3806,
      "##iba": 3807,
      "##01d": 3808,
      "##010": 3809,
      "##iry": 3810,
      "jt": 3811,
      "inter": 3812,
      "##onz": 3813,
      "##108": 3814,
      "##studios": 3815,
      "flor": 3816,
      "##isg": 3817,
      "fast": 3818,
      "vt": 3819,
      "lam": 3820,
      "##etd": 3821,
      "##012": 3822,
      "##abi": 3823,
      "##ingh": 3824,
      "kal": 3825,
      "##ilh": 3826,
      "##ekr": 3827,
      "##igg": 3828,
      "##itv": 3829,
      "##eals": 3830,
      "mont": 3831,
      "##tyle": 3832,
      "##ige": 3833,
      "##rock": 3834,
      "##iks": 3835,
      "##oundation": 3836,
      "##ente": 3837,
      "zx": 3838,
      "##oty": 3839,
      "##long": 3840,
      "##514": 3841,
      "##ilv": 3842,
      "emp": 3843,
      "##aim": 3844,
      "##oks": 3845,
      "##ender": 3846,
      "tem": 3847,
      "##eby": 3848,
      "##17d": 3849,
      "##esw": 3850,
      "##ayc": 3851,
      "##2018": 3852,
      "laur": 3853,
      "##unr": 3854,
      "##evelo": 3855,
      "##aud": 3856,
      "ws": 3857,
      "kq": 3858,
      "##orks": 3859,
      "##mot": 3860,
      "##atf": 3861,
      "wz": 3862,
      "##adt": 3863,
      "qs": 3864,
      "eo": 3865,
      "##ests": 3866,
      "##arw": 3867,
      "fac": 3868,
      "tre": 3869,
      "vu": 3870,
      "##ativ": 3871,
      "##16d": 3872,
      "##iety": 3873,
      "cloud": 3874,
      "##anth": 3875,
      "##tner": 3876,
      "##15d": 3877,
      "##upm": 3878,
      "##10f": 3879,
      "##1ad": 3880,
      "uo": 3881,
      "##ayy": 3882,
      "cre": 3883,
      "##elg": 3884,
      "dt": 3885,
      "##319": 3886,
      "##127": 3887,
      "##159": 3888,
      "##31d": 3889,
      "##upt": 3890,
      "##atz": 3891,
      "##utm": 3892,
      "##awf": 3893,
      "##stv": 3894,
      "##uild": 3895,
      "##ilf": 3896,
      "##ego": 3897,
      "##etl": 3898,
      "##128": 3899,
      "##1eb": 3900,
      "##158": 3901,
      "##oqm": 3902,
      "##urp": 3903,
      "ell": 3904,
      "##ocial": 3905,
      "fer": 3906,
      "form": 3907,
      "wt": 3908,
      "##ipm": 3909,
      "men": 3910,
      "tan": 3911,
      "##aul": 3912,
      "##unch": 3913,
      "bac": 3914,
      "##udo": 3915,
      "hal": 3916,
      "xz": 3917,
      "##usl": 3918,
      "##owd": 3919,
      "##619": 3920,
      "##16f": 3921,
      "##build": 3922,
      "##61d": 3923,
      "bell": 3924,
      "##azy": 3925,
      "##ander": 3926,
      "##1bd": 3927,
      "##edic": 3928,
      "zl": 3929,
      "##iga": 3930,
      "##usy": 3931,
      "##esi": 3932,
      "##odo": 3933,
      "##ional": 3934,
      "its": 3935,
      "##otv": 3936,
      "##31f": 3937,
      "##ervista": 3938,
      "restaurant": 3939,
      "job": 3940,
      "##ayp": 3941,
      "##axi": 3942,
      "zr": 3943,
      "##ister": 3944,
      "##idr": 3945,
      "##owm": 3946,
      "free": 3947,
      "##sel": 3948,
      "van": 3949,
      "altervista": 3950,
      "##13d": 3951,
      "##61f": 3952,
      "##a47": 3953,
      "##ipe": 3954,
      "mom": 3955,
      "##317": 3956,
      "##ayg": 3957,
      "##138": 3958,
      "##elic": 3959,
      "first": 3960,
      "##afb": 3961,
      "##61c": 3962,
      "##ukr": 3963,
      "##owy": 3964,
      "brand": 3965,
      "##elly": 3966,
      "##cad": 3967,
      "##314": 3968,
      "jq": 3969,
      "fs": 3970,
      "##617": 3971,
      "##109": 3972,
      "##iak": 3973,
      "##b18": 3974,
      "##onsulting": 3975,
      "##otl": 3976,
      "##conn": 3977,
      "##itf": 3978,
      "##169": 3979,
      "##614": 3980,
      "##31c": 3981,
      "##umr": 3982,
      "bur": 3983,
      "##uph": 3984,
      "##ekh": 3985,
      "##egg": 3986,
      "##osw": 3987,
      "pap": 3988,
      "##61b": 3989,
      "##usb": 3990,
      "##uman": 3991,
      "##systems": 3992,
      "wu": 3993,
      "##lol": 3994,
      "##etc": 3995,
      "##offee": 3996,
      "##107": 3997,
      "##inst": 3998,
      "##ingb": 3999,
      "##ilb": 4000,
      "##afc": 4001,
      "##acb": 4002,
      "##itd": 4003,
      "##erj": 4004,
      "##ense": 4005,
      "##unf": 4006,
      "life": 4007,
      "##iri": 4008,
      "##ahy": 4009,
      "host": 4010,
      "adm": 4011,
      "##ija": 4012,
      "##189": 4013,
      "##ugl": 4014,
      "ft": 4015,
      "##01f": 4016,
      "##a57": 4017,
      "fz": 4018,
      "xt": 4019,
      "##okh": 4020,
      "##itar": 4021,
      "ram": 4022,
      "##1ec": 4023,
      "##nes": 4024,
      "##129": 4025,
      "dir": 4026,
      "wq": 4027,
      "##mon": 4028,
      "ask": 4029,
      "##loj": 4030,
      "##219": 4031,
      "food": 4032,
      "ing": 4033,
      "##157": 4034,
      "##avy": 4035,
      "##atis": 4036,
      "##emon": 4037,
      "##a27": 4038,
      "##egl": 4039,
      "kom": 4040,
      "##15f": 4041,
      "##exper": 4042,
      "thel": 4043,
      "##11m": 4044,
      "##31b": 4045,
      "##awn": 4046,
      "##a67": 4047,
      "anim": 4048,
      "##11b": 4049,
      "studi": 4050,
      "##aging": 4051,
      "kin": 4052,
      "tek": 4053,
      "dec": 4054,
      "##167": 4055,
      "##ofh": 4056,
      "##okm": 4057,
      "##21c": 4058,
      "##21d": 4059,
      "rom": 4060,
      "##usr": 4061,
      "hand": 4062,
      "vq": 4063,
      "lav": 4064,
      "mi": 4065,
      "##oym": 4066,
      "##cab": 4067,
      "##opr": 4068,
      "##214": 4069,
      "##etw": 4070,
      "bud": 4071,
      "##uty": 4072,
      "##otw": 4073,
      "##usf": 4074,
      "##amo": 4075,
      "caf": 4076,
      "##atel": 4077,
      "sab": 4078,
      "xu": 4079,
      "##21f": 4080,
      "##ofw": 4081,
      "##21b": 4082,
      "##itas": 4083,
      "##iaz": 4084,
      "##1a7": 4085,
      "##loh": 4086,
      "##ises": 4087,
      "##olin": 4088,
      "##orj": 4089,
      "gi": 4090,
      "bz": 4091,
      "##atg": 4092,
      "##11h": 4093,
      "##11y": 4094,
      "##roh": 4095,
      "info": 4096,
      "##1e7": 4097,
      "##qpm": 4098,
      "##ancy": 4099,
      "##465": 4100,
      "##iana": 4101,
      "##eml": 4102,
      "##13f": 4103,
      "##iky": 4104,
      "##ahd": 4105,
      "##137": 4106,
      "##a37": 4107,
      "##125": 4108,
      "##atw": 4109,
      "##umy": 4110,
      "tal": 4111,
      "##ideos": 4112,
      "##aru": 4113,
      "##139": 4114,
      "##nology": 4115,
      "aff": 4116,
      "great": 4117,
      "##cas": 4118,
      "##munity": 4119,
      "##17f": 4120,
      "##univers": 4121,
      "##uky": 4122,
      "##187": 4123,
      "##etz": 4124,
      "bad": 4125,
      "mam": 4126,
      "##usv": 4127,
      "##aky": 4128,
      "east": 4129,
      "amb": 4130,
      "##idge": 4131,
      "xq": 4132,
      "##1e9": 4133,
      "##ulp": 4134,
      "agr": 4135,
      "##big": 4136,
      "##photo": 4137,
      "##1a9": 4138,
      "##uda": 4139,
      "##itk": 4140,
      "##prm": 4141,
      "##198": 4142,
      "##19d": 4143,
      "##ities": 4144,
      "##icf": 4145,
      "##199": 4146,
      "##1a8": 4147,
      "##ugr": 4148,
      "##11v": 4149,
      "##izm": 4150,
      "##opf": 4151,
      "vi": 4152,
      "##41d": 4153,
      "##utl": 4154,
      "##ikl": 4155,
      "##bdd": 4156,
      "za": 4157,
      "##ulh": 4158,
      "##19f": 4159,
      "##1e8": 4160,
      "##osn": 4161,
      "##ici": 4162,
      "##888": 4163,
      "mark": 4164,
      "##oky": 4165,
      "##gen": 4166,
      "##emor": 4167,
      "##178": 4168,
      "pac": 4169,
      "##013": 4170,
      "##etal": 4171,
      "urb": 4172,
      "##11w": 4173,
      "##egal": 4174,
      "##ovo": 4175,
      "##etf": 4176,
      "flo": 4177,
      "##ayw": 4178,
      "##upy": 4179,
      "##obb": 4180,
      "##arat": 4181,
      "##oln": 4182,
      "##abo": 4183,
      "##axy": 4184,
      "##uki": 4185,
      "##1ed": 4186,
      "##ians": 4187,
      "##opv": 4188,
      "##iao": 4189,
      "##etb": 4190,
      "##aja": 4191,
      "nex": 4192,
      "ref": 4193,
      "##iye": 4194,
      "li": 4195,
      "gq": 4196,
      "##aran": 4197,
      "##1cd": 4198,
      "##oya": 4199,
      "vin": 4200,
      "##124": 4201,
      "zo": 4202,
      "##ulv": 4203,
      "##count": 4204,
      "##bout": 4205,
      "##spm": 4206,
      "lim": 4207,
      "##upv": 4208,
      "##logist": 4209,
      "##pract": 4210,
      "##iyy": 4211,
      "##itb": 4212,
      "pre": 4213,
      "##usw": 4214,
      "##estor": 4215,
      "cur": 4216,
      "##eba": 4217,
      "##itw": 4218,
      "##105": 4219,
      "##entur": 4220,
      "##11x": 4221,
      "##ijk": 4222,
      "##unh": 4223,
      "##ewh": 4224,
      "film": 4225,
      "##stitut": 4226,
      "##erst": 4227,
      "##14d": 4228,
      "##1fd": 4229,
      "##120": 4230,
      "##assage": 4231,
      "typ": 4232,
      "hair": 4233,
      "##esn": 4234,
      "key": 4235,
      "##unw": 4236,
      "##upr": 4237,
      "##omf": 4238,
      "##uys": 4239,
      "##owr": 4240,
      "##oqr": 4241,
      "sin": 4242,
      "kur": 4243,
      "afr": 4244,
      "##atc": 4245,
      "##amf": 4246,
      "##opa": 4247,
      "##uge": 4248,
      "##11j": 4249,
      "##blu": 4250,
      "##emov": 4251,
      "##uby": 4252,
      "##nyc": 4253,
      "micha": 4254,
      "##ergy": 4255,
      "##ican": 4256,
      "lar": 4257,
      "##chen": 4258,
      "##okl": 4259,
      "##utf": 4260,
      "##oyd": 4261,
      "##ukh": 4262,
      "##ience": 4263,
      "##ukk": 4264,
      "##ukm": 4265,
      "coc": 4266,
      "##ogs": 4267,
      "##315": 4268,
      "##amin": 4269,
      "post": 4270,
      "ess": 4271,
      "##435": 4272,
      "##itness": 4273,
      "##14f": 4274,
      "##park": 4275,
      "##esg": 4276,
      "##spy": 4277,
      "##ods": 4278,
      "##ubb": 4279,
      "##uku": 4280,
      "##c59": 4281,
      "##okk": 4282,
      "##ohr": 4283,
      "##olg": 4284,
      "##ehm": 4285,
      "##isj": 4286,
      "ai": 4287,
      "##osg": 4288,
      "##ccd": 4289,
      "##618": 4290,
      "##ofs": 4291,
      "##179": 4292,
      "##erties": 4293,
      "##318": 4294,
      "##eky": 4295,
      "forum": 4296,
      "##147": 4297,
      "nik": 4298,
      "##oyf": 4299,
      "##1dd": 4300,
      "##ecb": 4301,
      "##phy": 4302,
      "##1cf": 4303,
      "cq": 4304,
      "##stitute": 4305,
      "zg": 4306,
      "##ayv": 4307,
      "##1ff": 4308,
      "##lyn": 4309,
      "fq": 4310,
      "##eye": 4311,
      "class": 4312,
      "##akd": 4313,
      "24": 4314,
      "##197": 4315,
      "##ource": 4316,
      "##177": 4317,
      "##exy": 4318,
      "zp": 4319,
      "##ofb": 4320,
      "##bdf": 4321,
      "##azar": 4322,
      "end": 4323,
      "##esr": 4324,
      "##316": 4325,
      "##osb": 4326,
      "##edical": 4327,
      "##1bf": 4328,
      "vip": 4329,
      "##west": 4330,
      "##ewr": 4331,
      "##ogh": 4332,
      "##cha": 4333,
      "##ewy": 4334,
      "##etech": 4335,
      "##eur": 4336,
      "##imi": 4337,
      "##1b8": 4338,
      "##umv": 4339,
      "##615": 4340,
      "##stm": 4341,
      "##ission": 4342,
      "##books": 4343,
      "##ifr": 4344,
      "##104": 4345,
      "##street": 4346,
      "##unv": 4347,
      "##icb": 4348,
      "##1b9": 4349,
      "##616": 4350,
      "##613": 4351,
      "##evy": 4352,
      "##actory": 4353,
      "##oxy": 4354,
      "##213": 4355,
      "##idm": 4356,
      "##eyh": 4357,
      "bod": 4358,
      "##ubr": 4359,
      "##urniture": 4360,
      "##ekk": 4361,
      "##qnm": 4362,
      "##1c9": 4363,
      "univers": 4364,
      "##ifi": 4365,
      "##olly": 4366,
      "lak": 4367,
      "##1c8": 4368,
      "##atp": 4369,
      "##tsm": 4370,
      "sem": 4371,
      "##edh": 4372,
      "##otd": 4373,
      "##ulr": 4374,
      "##elr": 4375,
      "##itp": 4376,
      "##evi": 4377,
      "si": 4378,
      "##oqv": 4379,
      "##omo": 4380,
      "##1f9": 4381,
      "cons": 4382,
      "##qpv": 4383,
      "##lond": 4384,
      "##oper": 4385,
      "hig": 4386,
      "##anim": 4387,
      "##ekm": 4388,
      "##osj": 4389,
      "##oyy": 4390,
      "##umd": 4391,
      "zb": 4392,
      "##team": 4393,
      "##qrm": 4394,
      "##entals": 4395,
      "##omr": 4396,
      "dq": 4397,
      "##igl": 4398,
      "##102": 4399,
      "##quy": 4400,
      "##149": 4401,
      "##akm": 4402,
      "##ocl": 4403,
      "kor": 4404,
      "##ffd": 4405,
      "farm": 4406,
      "##found": 4407,
      "##1df": 4408,
      "grand": 4409,
      "##icas": 4410,
      "##515": 4411,
      "##uka": 4412,
      "business": 4413,
      "##oqw": 4414,
      "##cdd": 4415,
      "##tual": 4416,
      "xs": 4417,
      "##c39": 4418,
      "##ogn": 4419,
      "##efb": 4420,
      "##ingf": 4421,
      "##215": 4422,
      "appspot": 4423,
      "www": 4424,
      "##218": 4425,
      "##ehl": 4426,
      "##g13": 4427,
      "##c29": 4428,
      "##aris": 4429,
      "##reative": 4430,
      "##fff": 4431,
      "##148": 4432,
      "##ccf": 4433,
      "watch": 4434,
      "##fdf": 4435,
      "##c69": 4436,
      "##iber": 4437,
      "##1b7": 4438,
      "##216": 4439,
      "##roz": 4440,
      "social": 4441,
      "##inx": 4442,
      "##emf": 4443,
      "##uce": 4444,
      "##ovy": 4445,
      "##1f8": 4446,
      "will": 4447,
      "##afm": 4448,
      "##edt": 4449,
      "play": 4450,
      "##oles": 4451,
      "##irf": 4452,
      "##eyf": 4453,
      "##11r": 4454,
      "##1e5": 4455,
      "##416": 4456,
      "##abh": 4457,
      "##aws": 4458,
      "##1d8": 4459,
      "fran": 4460,
      "##umw": 4461,
      "##bcf": 4462,
      "##oyl": 4463,
      "##1c7": 4464,
      "##alw": 4465,
      "##ency": 4466,
      "##nologies": 4467,
      "educ": 4468,
      "##ulg": 4469,
      "##urw": 4470,
      "##1a5": 4471,
      "##irh": 4472,
      "##1d9": 4473,
      "##edp": 4474,
      "##useum": 4475,
      "##ools": 4476,
      "##eko": 4477,
      "##ibrary": 4478,
      "##imy": 4479,
      "##awk": 4480,
      "##unp": 4481,
      "##ains": 4482,
      "##1f7": 4483,
      "##erie": 4484,
      "##ipy": 4485,
      "##skr": 4486,
      "##ogy": 4487,
      "##upw": 4488,
      "##umn": 4489,
      "##qmm": 4490,
      "##fdd": 4491,
      "##eyl": 4492,
      "##eyy": 4493,
      "##ugm": 4494,
      "##ikv": 4495,
      "##ofy": 4496,
      "##ixm": 4497,
      "##erz": 4498,
      "##bbf": 4499,
      "##omot": 4500,
      "pas": 4501,
      "##uid": 4502,
      "##eek": 4503,
      "##ulw": 4504,
      "##oqj": 4505,
      "scr": 4506,
      "##irw": 4507,
      "##upf": 4508,
      "##imd": 4509,
      "jun": 4510,
      "jan": 4511,
      "##tract": 4512,
      "##ohm": 4513,
      "##qnr": 4514,
      "pay": 4515,
      "##ebc": 4516,
      "##k17": 4517,
      "##igy": 4518,
      "##srl": 4519,
      "chin": 4520,
      "live": 4521,
      "##iger": 4522,
      "##uml": 4523,
      "##owb": 4524,
      "##cdf": 4525,
      "##owh": 4526,
      "##oker": 4527,
      "##212": 4528,
      "##astr": 4529,
      "##1d7": 4530,
      "fot": 4531,
      "##ofg": 4532,
      "andre": 4533,
      "##ateg": 4534,
      "##ipv": 4535,
      "##opk": 4536,
      "##opw": 4537,
      "##c49": 4538,
      "##umf": 4539,
      "##opj": 4540,
      "##evo": 4541,
      "##oca": 4542,
      "##iwm": 4543,
      "##day": 4544,
      "##ires": 4545,
      "##uyy": 4546,
      "##iance": 4547,
      "##hys": 4548,
      "zn": 4549,
      "##itg": 4550,
      "##agy": 4551,
      "##ugu": 4552,
      "##qnv": 4553,
      "##iso": 4554,
      "##realty": 4555,
      "##etp": 4556,
      "##oqp": 4557,
      "##oby": 4558,
      "##umi": 4559,
      "##illy": 4560,
      "##okv": 4561,
      "##217": 4562,
      "##ofc": 4563,
      "##ehd": 4564,
      "xe": 4565,
      "##olh": 4566,
      "org": 4567,
      "##guide": 4568,
      "##interi": 4569,
      "##atu": 4570,
      "##oxm": 4571,
      "##ofp": 4572,
      "qe": 4573,
      "pi": 4574,
      "##312": 4575,
      "##illo": 4576,
      "##obe": 4577,
      "##idh": 4578,
      "##oqy": 4579,
      "##aaa": 4580,
      "##j16": 4581,
      "##oria": 4582,
      "##emar": 4583,
      "##irp": 4584,
      "master": 4585,
      "##appl": 4586,
      "##pre": 4587,
      "##1e4": 4588,
      "mill": 4589,
      "##otic": 4590,
      "##olp": 4591,
      "##imw": 4592,
      "##iant": 4593,
      "qa": 4594,
      "##rox": 4595,
      "##ugy": 4596,
      "##ugs": 4597,
      "##apk": 4598,
      "proj": 4599,
      "zk": 4600,
      "canal": 4601,
      "##asj": 4602,
      "##olid": 4603,
      "##ianc": 4604,
      "##qmv": 4605,
      "market": 4606,
      "nav": 4607,
      "##612": 4608,
      "##135": 4609,
      "##agd": 4610,
      "##ifl": 4611,
      "##oba": 4612,
      "##itect": 4613,
      "##emc": 4614,
      "##otp": 4615,
      "##418": 4616,
      "biz": 4617,
      "ni": 4618,
      "##eyr": 4619,
      "fashion": 4620,
      "##utv": 4621,
      "kan": 4622,
      "lad": 4623,
      "##qmr": 4624,
      "##ehy": 4625,
      "##ukv": 4626,
      "##solutions": 4627,
      "##ular": 4628,
      "kon": 4629,
      "##min": 4630,
      "##11l": 4631,
      "##ikd": 4632,
      "sum": 4633,
      "##qrr": 4634,
      "sec": 4635,
      "##upj": 4636,
      "##amr": 4637,
      "##ociety": 4638,
      "##ulj": 4639,
      "fri": 4640,
      "##emi": 4641,
      "##155": 4642,
      "##ucy": 4643,
      "##oko": 4644,
      "home": 4645,
      "##icw": 4646,
      "ton": 4647,
      "##ivy": 4648,
      "##enu": 4649,
      "cer": 4650,
      "##itu": 4651,
      "dep": 4652,
      "##ilp": 4653,
      "bq": 4654,
      "##inz": 4655,
      "##auto": 4656,
      "##irj": 4657,
      "##egh": 4658,
      "##ogu": 4659,
      "add": 4660,
      "##icp": 4661,
      "##etg": 4662,
      "##okf": 4663,
      "##aml": 4664,
      "lon": 4665,
      "##usj": 4666,
      "cro": 4667,
      "##oso": 4668,
      "##10b": 4669,
      "##ubs": 4670,
      "##ipf": 4671,
      "##alr": 4672,
      "ti": 4673,
      "##oveis": 4674,
      "##prr": 4675,
      "##iment": 4676,
      "##iml": 4677,
      "##qpy": 4678,
      "simpl": 4679,
      "##ingl": 4680,
      "##chm": 4681,
      "##angl": 4682,
      "##qpw": 4683,
      "dot": 4684,
      "##419": 4685,
      "##qkm": 4686,
      "##417": 4687,
      "##oka": 4688,
      "##opd": 4689,
      "##qlm": 4690,
      "##bac": 4691,
      "##umc": 4692,
      "##arel": 4693,
      "##spv": 4694,
      "##ehe": 4695,
      "eas": 4696,
      "##otes": 4697,
      "##omv": 4698,
      "##ovm": 4699,
      "park": 4700,
      "##ohy": 4701,
      "##efc": 4702,
      "##aze": 4703,
      "##prv": 4704,
      "##okw": 4705,
      "##41f": 4706,
      "##hosp": 4707,
      "##imr": 4708,
      "##51f": 4709,
      "##eti": 4710,
      "##106": 4711,
      "##oql": 4712,
      "##abar": 4713,
      "##tow": 4714,
      "##urh": 4715,
      "##enst": 4716,
      "##typ": 4717,
      "##lothing": 4718,
      "beaut": 4719,
      "##eyb": 4720,
      "non": 4721,
      "##utz": 4722,
      "##izh": 4723,
      "##001": 4724,
      "##41b": 4725,
      "##istory": 4726,
      "##lyr": 4727,
      "##itc": 4728,
      "##ohl": 4729,
      "##qlr": 4730,
      "##elw": 4731,
      "##qpp": 4732,
      "##enth": 4733,
      "##exh": 4734,
      "##fer": 4735,
      "##etter": 4736,
      "##insurance": 4737,
      "##usg": 4738,
      "##utter": 4739,
      "##145": 4740,
      "##ilj": 4741,
      "##eke": 4742,
      "##uhr": 4743,
      "##irst": 4744,
      "##spar": 4745,
      "##41c": 4746,
      "##455": 4747,
      "mich": 4748,
      "##imv": 4749,
      "##ulu": 4750,
      "##ilr": 4751,
      "##adl": 4752,
      "##1st": 4753,
      "##uno": 4754,
      "##lym": 4755,
      "##eee": 4756,
      "##olr": 4757,
      "##lox": 4758,
      "##acht": 4759,
      "##udr": 4760,
      "##epm": 4761,
      "##qrv": 4762,
      "##iym": 4763,
      "##education": 4764,
      "ucoz": 4765,
      "box": 4766,
      "##ewelry": 4767,
      "##etk": 4768,
      "##412": 4769,
      "##edv": 4770,
      "whit": 4771,
      "##elin": 4772,
      "system": 4773,
      "##aln": 4774,
      "##omd": 4775,
      "##c11": 4776,
      "##quv": 4777,
      "##185": 4778,
      "##464": 4779,
      "lap": 4780,
      "cool": 4781,
      "##lyf": 4782,
      "##oml": 4783,
      "##qnw": 4784,
      "##exm": 4785,
      "##epy": 4786,
      "##ogm": 4787,
      "##ails": 4788,
      "##oqk": 4789,
      "war": 4790,
      "##qpj": 4791,
      "##tments": 4792,
      "##orx": 4793,
      "##ulb": 4794,
      "##inar": 4795,
      "##eries": 4796,
      "##ikes": 4797,
      "##ihy": 4798,
      "##agm": 4799,
      "##ekw": 4800,
      "##amc": 4801,
      "##reh": 4802,
      "##owa": 4803,
      "##ojm": 4804,
      "##upx": 4805,
      "##p12": 4806,
      "ci": 4807,
      "##thr": 4808,
      "##413": 4809,
      "##orpor": 4810,
      "##1e0": 4811,
      "##aef": 4812,
      "power": 4813,
      "##uke": 4814,
      "##tym": 4815,
      "##arms": 4816,
      "##eres": 4817,
      "##sco": 4818,
      "##qlv": 4819,
      "##point": 4820,
      "ist": 4821,
      "##olic": 4822,
      "##ovr": 4823,
      "sus": 4824,
      "##otf": 4825,
      "##ayk": 4826,
      "hon": 4827,
      "##424": 4828,
      "sit": 4829,
      "##n10": 4830,
      "qo": 4831,
      "##oct": 4832,
      "##sen": 4833,
      "##ukw": 4834,
      "##agi": 4835,
      "##quw": 4836,
      "##ixd": 4837,
      "##acm": 4838,
      "##ists": 4839,
      "##gym": 4840,
      "##oyr": 4841,
      "##150": 4842,
      "##elj": 4843,
      "##ivr": 4844,
      "##ibb": 4845,
      "##publ": 4846,
      "##oqh": 4847,
      "##iano": 4848,
      "##ukt": 4849,
      "##1a6": 4850,
      "##ogg": 4851,
      "##oqx": 4852,
      "##avr": 4853,
      "##165": 4854,
      "##qkv": 4855,
      "##oxv": 4856,
      "##qkr": 4857,
      "##oxf": 4858,
      "lev": 4859,
      "nam": 4860,
      "##oyv": 4861,
      "##ojr": 4862,
      "##195": 4863,
      "##imn": 4864,
      "##ipw": 4865,
      "##103": 4866,
      "##1c5": 4867,
      "##itj": 4868,
      "##atter": 4869,
      "##ojo": 4870,
      "##sys": 4871,
      "##425": 4872,
      "##ublic": 4873,
      "##prp": 4874,
      "##1b5": 4875,
      "##uga": 4876,
      "##ivm": 4877,
      "##ulc": 4878,
      "##acon": 4879,
      "##smm": 4880,
      "##acker": 4881,
      "##omi": 4882,
      "##175": 4883,
      "##owf": 4884,
      "##qrw": 4885,
      "bio": 4886,
      "##ukl": 4887,
      "##arj": 4888,
      "##otk": 4889,
      "##ahs": 4890,
      "las": 4891,
      "##umh": 4892,
      "##izl": 4893,
      "clinic": 4894,
      "##imk": 4895,
      "service": 4896,
      "##1e3": 4897,
      "bor": 4898,
      "cast": 4899,
      "zu": 4900,
      "##alu": 4901,
      "##okj": 4902,
      "##udh": 4903,
      "##coin": 4904,
      "##she": 4905,
      "##akb": 4906,
      "pos": 4907,
      "##1aj": 4908,
      "##utw": 4909,
      "##180": 4910,
      "##obile": 4911,
      "##i11": 4912,
      "##erver": 4913,
      "##amh": 4914,
      "kid": 4915,
      "##prw": 4916,
      "##efa": 4917,
      "ui": 4918,
      "##1a4": 4919,
      "##ilw": 4920,
      "##uym": 4921,
      "##1e6": 4922,
      "##organ": 4923,
      "##enci": 4924,
      "ri": 4925,
      "ful": 4926,
      "##edom": 4927,
      "##emn": 4928,
      "##olc": 4929,
      "##ijm": 4930,
      "##inos": 4931,
      "##ikt": 4932,
      "dor": 4933,
      "##ofv": 4934,
      "##urj": 4935,
      "##ojv": 4936,
      "##stl": 4937,
      "##exd": 4938,
      "##pry": 4939,
      "##qpx": 4940,
      "##efe": 4941,
      "##qjm": 4942,
      "##1a0": 4943,
      "rus": 4944,
      "ii": 4945,
      "##adw": 4946,
      "##esj": 4947,
      "##122": 4948,
      "##unb": 4949,
      "##tyr": 4950,
      "##uhy": 4951,
      "##000": 4952,
      "##ecar": 4953,
      "##imf": 4954,
      "moh": 4955,
      "toy": 4956,
      "sat": 4957,
      "##qmw": 4958,
      "##ends": 4959,
      "##oqf": 4960,
      "rock": 4961,
      "##emr": 4962,
      "hi": 4963,
      "##avo": 4964,
      "##iax": 4965,
      "3d": 4966,
      "##akf": 4967,
      "##emv": 4968,
      "##inform": 4969,
      "##475": 4970,
      "cit": 4971,
      "deb": 4972,
      "##q11": 4973,
      "##ipj": 4974,
      "##lyd": 4975,
      "##idw": 4976,
      "##ofj": 4977,
      "center": 4978,
      "##arab": 4979,
      "##umj": 4980,
      "##163": 4981,
      "##eyw": 4982,
      "##imh": 4983,
      "##utb": 4984,
      "##1a2": 4985,
      "##chem": 4986,
      "##qny": 4987,
      "##iyd": 4988,
      "##igs": 4989,
      "##prj": 4990,
      "##1f5": 4991,
      "##chic": 4992,
      "##ujy": 4993,
      "##epe": 4994,
      "##1e2": 4995,
      "cab": 4996,
      "alph": 4997,
      "##ingc": 4998,
      "##u11": 4999,
      "##opx": 5000,
      "##qvm": 5001,
      "##ustri": 5002,
      "##qmy": 5003,
      "##ijy": 5004,
      "oi": 5005,
      "tam": 5006,
      "##qnj": 5007,
      "berlin": 5008,
      "##upc": 5009,
      "##irb": 5010,
      "##ixf": 5011,
      "##rym": 5012,
      "##oww": 5013,
      "##1a3": 5014,
      "##uon": 5015,
      "##owe": 5016,
      "##astic": 5017,
      "##okd": 5018,
      "##udg": 5019,
      "##igi": 5020,
      "##ugv": 5021,
      "##ecm": 5022,
      "##apm": 5023,
      "##ixy": 5024,
      "##umk": 5025,
      "##project": 5026,
      "##unx": 5027,
      "##egroup": 5028,
      "##ijn": 5029,
      "##upk": 5030,
      "##qwm": 5031,
      "##ojy": 5032,
      "##img": 5033,
      "##edn": 5034,
      "##ints": 5035,
      "riv": 5036,
      "##1d5": 5037,
      "##omw": 5038,
      "##etn": 5039,
      "##icv": 5040,
      "##odm": 5041,
      "##a19": 5042,
      "##ipd": 5043,
      "##oyw": 5044,
      "##174": 5045,
      "##uxm": 5046,
      "##okt": 5047,
      "##uwm": 5048,
      "##qjv": 5049,
      "##irn": 5050,
      "##obd": 5051,
      "##ekn": 5052,
      "##ijv": 5053,
      "mult": 5054,
      "##ixx": 5055,
      "##uvm": 5056,
      "##ials": 5057,
      "##uvr": 5058,
      "##aye": 5059,
      "##prl": 5060,
      "##associates": 5061,
      "##ekd": 5062,
      "smar": 5063,
      "##christ": 5064,
      "##ahb": 5065,
      "##cbd": 5066,
      "##cep": 5067,
      "##ijf": 5068,
      "##140": 5069,
      "##qky": 5070,
      "##1ez": 5071,
      "##advis": 5072,
      "##acing": 5073,
      "veg": 5074,
      "##otg": 5075,
      "##spb": 5076,
      "##review": 5077,
      "##imat": 5078,
      "##164": 5079,
      "##uks": 5080,
      "##uwy": 5081,
      "vict": 5082,
      "##okp": 5083,
      "wind": 5084,
      "##uni": 5085,
      "##ehouse": 5086,
      "##qjr": 5087,
      "##iamond": 5088,
      "##aad": 5089,
      "##spp": 5090,
      "##agazine": 5091,
      "##a13": 5092,
      "##srv": 5093,
      "ji": 5094,
      "##144": 5095,
      "##prx": 5096,
      "##aci": 5097,
      "##ikw": 5098,
      "##qrp": 5099,
      "ath": 5100,
      "##eam": 5101,
      "##ifts": 5102,
      "##405": 5103,
      "##abet": 5104,
      "##oyj": 5105,
      "##otj": 5106,
      "##1ej": 5107,
      "##aber": 5108,
      "##iku": 5109,
      "##merce": 5110,
      "##uner": 5111,
      "##aden": 5112,
      "##usn": 5113,
      "fi": 5114,
      "##olw": 5115,
      "##qrj": 5116,
      "##orner": 5117,
      "##ogw": 5118,
      "##arz": 5119,
      "##island": 5120,
      "##sym": 5121,
      "##efm": 5122,
      "wal": 5123,
      "##coast": 5124,
      "##oyp": 5125,
      "##1az": 5126,
      "##shr": 5127,
      "##uhm": 5128,
      "##ukj": 5129,
      "##iwy": 5130,
      "cop": 5131,
      "##evr": 5132,
      "##ujr": 5133,
      "##omn": 5134,
      "##01b": 5135,
      "##awl": 5136,
      "##ania": 5137,
      "##onics": 5138,
      "##oxx": 5139,
      "##160": 5140,
      "##1tw": 5141,
      "##eyn": 5142,
      "##ario": 5143,
      "##eyv": 5144,
      "##154": 5145,
      "##spw": 5146,
      "##qmj": 5147,
      "##evd": 5148,
      "##iang": 5149,
      "##oyh": 5150,
      "elm": 5151,
      "##owv": 5152,
      "##qnp": 5153,
      "##bur": 5154,
      "##epd": 5155,
      "##okn": 5156,
      "##apf": 5157,
      "##apd": 5158,
      "##istrib": 5159,
      "##51d": 5160,
      "webn": 5161,
      "##asan": 5162,
      "##ubm": 5163,
      "lox": 5164,
      "##ocy": 5165,
      "##1tm": 5166,
      "jav": 5167,
      "daniel": 5168,
      "##osx": 5169,
      "##iyv": 5170,
      "sports": 5171,
      "##oo7": 5172,
      "##ako": 5173,
      "##1sw": 5174,
      "##bles": 5175,
      "##ension": 5176,
      "##1tj": 5177,
      "##udm": 5178,
      "##iyf": 5179,
      "##ufy": 5180,
      "##quj": 5181,
      "##qlw": 5182,
      "##ifm": 5183,
      "##snm": 5184,
      "appl": 5185,
      "##126": 5186,
      "##lowers": 5187,
      "##1av": 5188,
      "##1oz": 5189,
      "xo": 5190,
      "##thm": 5191,
      "##scap": 5192,
      "##ixw": 5193,
      "##uvy": 5194,
      "##iby": 5195,
      "##130": 5196,
      "##udw": 5197,
      "##1b0": 5198,
      "##ewm": 5199,
      "##atn": 5200,
      "##132": 5201,
      "##avels": 5202,
      "##abm": 5203,
      "##acu": 5204,
      "##ikf": 5205,
      "##epa": 5206,
      "##1uz": 5207,
      "##alj": 5208,
      "##qyy": 5209,
      "##143": 5210,
      "##oqn": 5211,
      "##ukd": 5212,
      "##146": 5213,
      "##qux": 5214,
      "##518": 5215,
      "##omj": 5216,
      "##999": 5217,
      "##ujm": 5218,
      "##1iw": 5219,
      "##ujv": 5220,
      "##qpf": 5221,
      "##umber": 5222,
      "##ijd": 5223,
      "##spj": 5224,
      "##tpm": 5225,
      "##andl": 5226,
      "##adj": 5227,
      "##utd": 5228,
      "##1qz": 5229,
      "##a1f": 5230,
      "##obm": 5231,
      "##exf": 5232,
      "##anta": 5233,
      "##1b4": 5234,
      "##1tv": 5235,
      "##ourc": 5236,
      "gro": 5237,
      "##olj": 5238,
      "##1sj": 5239,
      "##qgm": 5240,
      "##ojj": 5241,
      "##style": 5242,
      "##caf": 5243,
      "sig": 5244,
      "porn": 5245,
      "##upn": 5246,
      "##qnx": 5247,
      "##aves": 5248,
      "maj": 5249,
      "##152": 5250,
      "##prh": 5251,
      "##170": 5252,
      "##sny": 5253,
      "##134": 5254,
      "ki": 5255,
      "##12b": 5256,
      "prot": 5257,
      "##tyf": 5258,
      "##ovv": 5259,
      "##uyv": 5260,
      "##51c": 5261,
      "##prf": 5262,
      "##ipk": 5263,
      "##136": 5264,
      "##ugd": 5265,
      "##1sv": 5266,
      "##shm": 5267,
      "ei": 5268,
      "##tsv": 5269,
      "##156": 5270,
      "##idi": 5271,
      "##adk": 5272,
      "##eac": 5273,
      "##310": 5274,
      "##unic": 5275,
      "##rex": 5276,
      "##uta": 5277,
      "##ihm": 5278,
      "##rek": 5279,
      "##qkw": 5280,
      "##ovl": 5281,
      "##uxv": 5282,
      "##eza": 5283,
      "##srm": 5284,
      "##1ch": 5285,
      "##1qd": 5286,
      "##utk": 5287,
      "##cor": 5288,
      "##asz": 5289,
      "env": 5290,
      "##ugw": 5291,
      "rot": 5292,
      "##ikp": 5293,
      "##qsm": 5294,
      "gab": 5295,
      "##itn": 5296,
      "##qmp": 5297,
      "##ivf": 5298,
      "##qnl": 5299,
      "##1sd": 5300,
      "yog": 5301,
      "##about": 5302,
      "##stw": 5303,
      "##ppm": 5304,
      "##qvr": 5305,
      "##ahk": 5306,
      "##iyw": 5307,
      "##qym": 5308,
      "##a18": 5309,
      "##epad": 5310,
      "##ehn": 5311,
      "##qhm": 5312,
      "##ompany": 5313,
      "##uhl": 5314,
      "##space": 5315,
      "##142": 5316,
      "##eyg": 5317,
      "##olb": 5318,
      "##uvv": 5319,
      "##ujw": 5320,
      "##ixv": 5321,
      "##ecn": 5322,
      "cyb": 5323,
      "##upply": 5324,
      "##andy": 5325,
      "##qgy": 5326,
      "##oyo": 5327,
      "prom": 5328,
      "##1ax": 5329,
      "##1td": 5330,
      "##166": 5331,
      "##gress": 5332,
      "##uen": 5333,
      "##omk": 5334,
      "##ayj": 5335,
      "##190": 5336,
      "##ojp": 5337,
      "yi": 5338,
      "##tsd": 5339,
      "##1d4": 5340,
      "##owp": 5341,
      "##ements": 5342,
      "##acao": 5343,
      "##ufr": 5344,
      "##qkj": 5345,
      "##ufm": 5346,
      "##1tx": 5347,
      "##icg": 5348,
      "##ocd": 5349,
      "##bbb": 5350,
      "##1ph": 5351,
      "##onx": 5352,
      "##ijw": 5353,
      "alf": 5354,
      "##ahv": 5355,
      "##tyh": 5356,
      "##aso": 5357,
      "##ukf": 5358,
      "##1sm": 5359,
      "##odg": 5360,
      "exc": 5361,
      "##qrl": 5362,
      "##qrx": 5363,
      "##bcb": 5364,
      "water": 5365,
      "##1ag": 5366,
      "##uyd": 5367,
      "##amk": 5368,
      "##repair": 5369,
      "mob": 5370,
      "##prim": 5371,
      "##utp": 5372,
      "##ivv": 5373,
      "zc": 5374,
      "##prot": 5375,
      "##ebm": 5376,
      "##aab": 5377,
      "##1b2": 5378,
      "##1sh": 5379,
      "black": 5380,
      "##162": 5381,
      "##ikj": 5382,
      "##egm": 5383,
      "##aho": 5384,
      "##192": 5385,
      "##1c0": 5386,
      "##ixr": 5387,
      "##avl": 5388,
      "##uxy": 5389,
      "##amt": 5390,
      "##qlx": 5391,
      "##1iz": 5392,
      "##isu": 5393,
      "##acom": 5394,
      "##oyk": 5395,
      "##ipz": 5396,
      "##sdr": 5397,
      "##umg": 5398,
      "##umin": 5399,
      "##akw": 5400,
      "##atering": 5401,
      "##ipx": 5402,
      "##irx": 5403,
      "##1sx": 5404,
      "##aaf": 5405,
      "##ofn": 5406,
      "##atj": 5407,
      "##ector": 5408,
      "##610": 5409,
      "##aii": 5410,
      "##igd": 5411,
      "##1ev": 5412,
      "##1qx": 5413,
      "##umx": 5414,
      "##eyj": 5415,
      "##ekf": 5416,
      "##upg": 5417,
      "##ijr": 5418,
      "##tyd": 5419,
      "##qvw": 5420,
      "##idf": 5421,
      "##1sy": 5422,
      "##imj": 5423,
      "##ogd": 5424,
      "##ione": 5425,
      "##ukx": 5426,
      "def": 5427,
      "##edes": 5428,
      "##akv": 5429,
      "invest": 5430,
      "##1tk": 5431,
      "##andf": 5432,
      "##1c4": 5433,
      "##snr": 5434,
      "mos": 5435,
      "##oxr": 5436,
      "##plm": 5437,
      "##enterpr": 5438,
      "##194": 5439,
      "##ieu": 5440,
      "##qlj": 5441,
      "##ipn": 5442,
      "##ertain": 5443,
      "##1tg": 5444,
      "##opn": 5445,
      "##iyj": 5446,
      "##uvw": 5447,
      "##1ry": 5448,
      "##1b6": 5449,
      "tax": 5450,
      "##orz": 5451,
      "##enet": 5452,
      "##qjw": 5453,
      "##awr": 5454,
      "##epf": 5455,
      "##ekv": 5456,
      "##outh": 5457,
      "##ally": 5458,
      "##iran": 5459,
      "##ivw": 5460,
      "##1ly": 5461,
      "##aed": 5462,
      "##idt": 5463,
      "##133": 5464,
      "##awh": 5465,
      "##11g": 5466,
      "##eaf": 5467,
      "##acar": 5468,
      "##1qw": 5469,
      "##196": 5470,
      "beauty": 5471,
      "##andh": 5472,
      "##thew": 5473,
      "##16b": 5474,
      "jon": 5475,
      "##1uw": 5476,
      "call": 5477,
      "##1qh": 5478,
      "canalblog": 5479,
      "##ugf": 5480,
      "##iyl": 5481,
      "##ovies": 5482,
      "##1c6": 5483,
      "webnode": 5484,
      "##offe": 5485,
      "cart": 5486,
      "##ucr": 5487,
      "##1d6": 5488,
      "vol": 5489,
      "##andw": 5490,
      "terr": 5491,
      "##uyw": 5492,
      "disc": 5493,
      "##ahh": 5494,
      "##176": 5495,
      "##allo": 5496,
      "##qvv": 5497,
      "##iou": 5498,
      "##spx": 5499,
      "##etj": 5500,
      "##abel": 5501,
      "##qjy": 5502,
      "##ijj": 5503,
      "##oqd": 5504,
      "que": 5505,
      "##1tn": 5506,
      "##1qy": 5507,
      "##idl": 5508,
      "reb": 5509,
      "##uli": 5510,
      "##ocm": 5511,
      "##quh": 5512,
      "##15b": 5513,
      "##ukp": 5514,
      "##odf": 5515,
      "##asia": 5516,
      "##unter": 5517,
      "##oqg": 5518,
      "raj": 5519,
      "##1d2": 5520,
      "##learn": 5521,
      "##ident": 5522,
      "##ohv": 5523,
      "##iyr": 5524,
      "##1uf": 5525,
      "##1d0": 5526,
      "##qlp": 5527,
      "##andc": 5528,
      "##qmx": 5529,
      "##atem": 5530,
      "##oxw": 5531,
      "##1sk": 5532,
      "kit": 5533,
      "##ojw": 5534,
      "##iyh": 5535,
      "##172": 5536,
      "bob": 5537,
      "##prem": 5538,
      "##usx": 5539,
      "##uxf": 5540,
      "##board": 5541,
      "##434": 5542,
      "##uyf": 5543,
      "##ovie": 5544,
      "adr": 5545,
      "##ofk": 5546,
      "##line": 5547,
      "##spro": 5548,
      "##iwr": 5549,
      "##bdb": 5550,
      "##uyh": 5551,
      "##fitness": 5552,
      "##ulx": 5553,
      "##asu": 5554,
      "engl": 5555,
      "pix": 5556,
      "##atech": 5557,
      "##qpn": 5558,
      "##imes": 5559,
      "##ejo": 5560,
      "##ovw": 5561,
      "##ugx": 5562,
      "##plr": 5563,
      "dam": 5564,
      "##spk": 5565,
      "##products": 5566,
      "inform": 5567,
      "##301": 5568,
      "##epal": 5569,
      "##foundation": 5570,
      "##uyr": 5571,
      "##azd": 5572,
      "##apo": 5573,
      "##otx": 5574,
      "##atin": 5575,
      "##ogv": 5576,
      "read": 5577,
      "##1sg": 5578,
      "##qwr": 5579,
      "##uhv": 5580,
      "##1th": 5581,
      "##utj": 5582,
      "##acs": 5583,
      "##bro": 5584,
      "##ddd": 5585,
      "##ait": 5586,
      "##186": 5587,
      "##opo": 5588,
      "##oyg": 5589,
      "##okx": 5590,
      "fund": 5591,
      "##71f": 5592,
      "##edel": 5593,
      "##qwy": 5594,
      "##emh": 5595,
      "##182": 5596,
      "##ikg": 5597,
      "##ahw": 5598,
      "123": 5599,
      "##oyx": 5600,
      "##1uv": 5601,
      "##emk": 5602,
      "##uppl": 5603,
      "##ahf": 5604,
      "##ovi": 5605,
      "##ucm": 5606,
      "##uxw": 5607,
      "##1sc": 5608,
      "##prd": 5609,
      "lan": 5610,
      "##uww": 5611,
      "##spf": 5612,
      "##prk": 5613,
      "bus": 5614,
      "##estore": 5615,
      "##ality": 5616,
      "##egi": 5617,
      "lead": 5618,
      "##entral": 5619,
      "##1ib": 5620,
      "##1qf": 5621,
      "##1c2": 5622,
      "##epv": 5623,
      "##184": 5624,
      "##andg": 5625,
      "##bab": 5626,
      "##ether": 5627,
      "crypt": 5628,
      "##emw": 5629,
      "##tsy": 5630,
      "##cel": 5631,
      "##eyk": 5632,
      "##qrh": 5633,
      "##network": 5634,
      "##ecu": 5635,
      "##enix": 5636,
      "fab": 5637,
      "##1ih": 5638,
      "##exv": 5639,
      "##qxm": 5640,
      "##exx": 5641,
      "##ospital": 5642,
      "##omas": 5643,
      "##iyx": 5644,
      "##qgv": 5645,
      "##qrk": 5646,
      "##1iv": 5647,
      "##11k": 5648,
      "##snj": 5649,
      "##qhy": 5650,
      "##omh": 5651,
      "##afy": 5652,
      "##otn": 5653,
      "##uwr": 5654,
      "##1qv": 5655,
      "##quf": 5656,
      "##1uj": 5657,
      "##udv": 5658,
      "##tpv": 5659,
      "##qnf": 5660,
      "##smy": 5661,
      "##ecs": 5662,
      "##sms": 5663,
      "##plan": 5664,
      "##opg": 5665,
      "##apc": 5666,
      "immobil": 5667,
      "##h14": 5668,
      "##eyp": 5669,
      "##owg": 5670,
      "##1ew": 5671,
      "##enx": 5672,
      "##qrf": 5673,
      "##ozy": 5674,
      "##avan": 5675,
      "##shy": 5676,
      "##1ox": 5677,
      "conn": 5678,
      "##153": 5679,
      "##qll": 5680,
      "##ejy": 5681,
      "##byd": 5682,
      "##lou": 5683,
      "##omx": 5684,
      "##210": 5685,
      "##uxd": 5686,
      "##elli": 5687,
      "##1qj": 5688,
      "##read": 5689,
      "##qkx": 5690,
      "##construction": 5691,
      "##snv": 5692,
      "##uyx": 5693,
      "##ibh": 5694,
      "##aac": 5695,
      "##ovk": 5696,
      "##19b": 5697,
      "##atar": 5698,
      "##1tl": 5699,
      "##1aw": 5700,
      "nord": 5701,
      "##apps": 5702,
      "thet": 5703,
      "##1sl": 5704,
      "##evm": 5705,
      "##uwv": 5706,
      "colo": 5707,
      "##qpk": 5708,
      "##qwv": 5709,
      "##ovp": 5710,
      "##idv": 5711,
      "##ojx": 5712,
      "pizz": 5713,
      "##odl": 5714,
      "##rej": 5715,
      "##18b": 5716,
      "##ryd": 5717,
      "##qtm": 5718,
      "then": 5719,
      "##eat": 5720,
      "##qkp": 5721,
      "##skl": 5722,
      "##qml": 5723,
      "##517": 5724,
      "##iwv": 5725,
      "##ahj": 5726,
      "##qnk": 5727,
      "##ccb": 5728,
      "mast": 5729,
      "##1tr": 5730,
      "##tho": 5731,
      "##amg": 5732,
      "##angu": 5733,
      "##nym": 5734,
      "##bym": 5735,
      "##owj": 5736,
      "##iones": 5737,
      "##place": 5738,
      "sak": 5739,
      "##eft": 5740,
      "##cal": 5741,
      "##omg": 5742,
      "##ogj": 5743,
      "##ucl": 5744,
      "##ujj": 5745,
      "##oqq": 5746,
      "xa": 5747,
      "##igw": 5748,
      "##1sf": 5749,
      "##efy": 5750,
      "##ohd": 5751,
      "##qhv": 5752,
      "##axm": 5753,
      "find": 5754,
      "vit": 5755,
      "##1qg": 5756,
      "##51b": 5757,
      "##ovj": 5758,
      "##uyj": 5759,
      "##kle": 5760,
      "##ovd": 5761,
      "##ohw": 5762,
      "##ojf": 5763,
      "##1f6": 5764,
      "##ucv": 5765,
      "##ojl": 5766,
      "day": 5767,
      "our": 5768,
      "##cdb": 5769,
      "##qld": 5770,
      "##iln": 5771,
      "##1f4": 5772,
      "##hair": 5773,
      "##icht": 5774,
      "##007": 5775,
      "##eyt": 5776,
      "##qhr": 5777,
      "media": 5778,
      "pot": 5779,
      "##edj": 5780,
      "##uhw": 5781,
      "##512": 5782,
      "##qvy": 5783,
      "##1ty": 5784,
      "aur": 5785,
      "##uyl": 5786,
      "##itx": 5787,
      "##fdb": 5788,
      "##iza": 5789,
      "##alam": 5790,
      "##hospital": 5791,
      "##uxr": 5792,
      "##1eh": 5793,
      "##ppv": 5794,
      "##ffb": 5795,
      "##azh": 5796,
      "##1f0": 5797,
      "##ajm": 5798,
      "jam": 5799,
      "##obo": 5800,
      "##odes": 5801,
      "##edk": 5802,
      "##smr": 5803,
      "##services": 5804,
      "##uln": 5805,
      "##qkf": 5806,
      "##owk": 5807,
      "##snw": 5808,
      "##mym": 5809,
      "##193": 5810,
      "##qnh": 5811,
      "##601": 5812,
      "##atx": 5813,
      "##hyd": 5814,
      "##iyo": 5815,
      "##uxx": 5816,
      "##anx": 5817,
      "##ixl": 5818,
      "##awm": 5819,
      "##aeb": 5820,
      "##spo": 5821,
      "##amic": 5822,
      "##ixh": 5823,
      "##ivl": 5824,
      "##ivd": 5825,
      "##lower": 5826,
      "##1bl": 5827,
      "##prn": 5828,
      "##avm": 5829,
      "##1tf": 5830,
      "##oyc": 5831,
      "##inity": 5832,
      "tro": 5833,
      "##1pl": 5834,
      "##awd": 5835,
      "##1ub": 5836,
      "##logia": 5837,
      "##obh": 5838,
      "##eru": 5839,
      "##qkl": 5840,
      "##tsf": 5841,
      "pic": 5842,
      "##516": 5843,
      "##ismo": 5844,
      "##ogf": 5845,
      "##183": 5846,
      "##epw": 5847,
      "##11c": 5848,
      "##1aa": 5849,
      "##skm": 5850,
      "##sfr": 5851,
      "sci": 5852,
      "##ihr": 5853,
      "##qmf": 5854,
      "##ikb": 5855,
      "##tsr": 5856,
      "##ajy": 5857,
      "one": 5858,
      "##oxd": 5859,
      "##ihv": 5860,
      "##a1d": 5861,
      "##institute": 5862,
      "##andt": 5863,
      "##iww": 5864,
      "##ayo": 5865,
      "##qvj": 5866,
      "##qpl": 5867,
      "##emx": 5868,
      "wel": 5869,
      "##ovf": 5870,
      "##lyh": 5871,
      "##qlf": 5872,
      "##qtn": 5873,
      "##ilx": 5874,
      "gener": 5875,
      "##uxh": 5876,
      "##qyv": 5877,
      "##scl": 5878,
      "##eyx": 5879,
      "##opc": 5880,
      "emm": 5881,
      "work": 5882,
      "##utx": 5883,
      "fair": 5884,
      "ken": 5885,
      "##isx": 5886,
      "##oyn": 5887,
      "##srr": 5888,
      "##1if": 5889,
      "##emj": 5890,
      "##qxv": 5891,
      "##igv": 5892,
      "##stp": 5893,
      "##qyw": 5894,
      "##qww": 5895,
      "##qyr": 5896,
      "##ivk": 5897,
      "##tmr": 5898,
      "##iting": 5899,
      "##acj": 5900,
      "abc": 5901,
      "##ixp": 5902,
      "##qmh": 5903,
      "##ovn": 5904,
      "tod": 5905,
      "zs": 5906,
      "##trm": 5907,
      "##obf": 5908,
      "##ibd": 5909,
      "##amv": 5910,
      "##173": 5911,
      "##icj": 5912,
      "##owt": 5913,
      "##ovh": 5914,
      "##13b": 5915,
      "##ugj": 5916,
      "##a14": 5917,
      "##change": 5918,
      "##iwf": 5919,
      "##oxl": 5920,
      "##axx": 5921,
      "##ances": 5922,
      "##urx": 5923,
      "##ibm": 5924,
      "##uxj": 5925,
      "##ufw": 5926,
      "##imx": 5927,
      "##slm": 5928,
      "##eae": 5929,
      "##ipg": 5930,
      "##iller": 5931,
      "##1uh": 5932,
      "##arin": 5933,
      "##asch": 5934,
      "##ocs": 5935,
      "##a16": 5936,
      "##qfy": 5937,
      "##816": 5938,
      "##ipo": 5939,
      "##ixj": 5940,
      "##ijl": 5941,
      "##igf": 5942,
      "##11p": 5943,
      "##electric": 5944,
      "##iyp": 5945,
      "##qxr": 5946,
      "##tsw": 5947,
      "##oxj": 5948,
      "##tyb": 5949,
      "##xxx": 5950,
      "##1f2": 5951,
      "##achine": 5952,
      "##thy": 5953,
      "##stj": 5954,
      "leb": 5955,
      "fan": 5956,
      "##iwj": 5957,
      "##umo": 5958,
      "##iwh": 5959,
      "##ccc": 5960,
      "##ugk": 5961,
      "##ufv": 5962,
      "##stat": 5963,
      "##umt": 5964,
      "##tmy": 5965,
      "##eyc": 5966,
      "##eso": 5967,
      "##17b": 5968,
      "##410": 5969,
      "##okg": 5970,
      "##1cb": 5971,
      "cosm": 5972,
      "##ijx": 5973,
      "wi": 5974,
      "##ojh": 5975,
      "##ouq": 5976,
      "##1od": 5977,
      "##init": 5978,
      "##a15": 5979,
      "##encia": 5980,
      "##etx": 5981,
      "##tkr": 5982,
      "##osz": 5983,
      "##ilc": 5984,
      "ker": 5985,
      "##1b3": 5986,
      "##ohj": 5987,
      "##stf": 5988,
      "##1c3": 5989,
      "##1bb": 5990,
      "##ujx": 5991,
      "aer": 5992,
      "##bfb": 5993,
      "##ddf": 5994,
      "##apro": 5995,
      "##ihd": 5996,
      "##eez": 5997,
      "##ijh": 5998,
      "##1sn": 5999,
      "cros": 6000,
      "##okc": 6001,
      "##qfm": 6002,
      "##qxy": 6003,
      "##allen": 6004,
      "##1eg": 6005,
      "##ifw": 6006,
      "##1ex": 6007,
      "##atre": 6008,
      "##emt": 6009,
      "##oxh": 6010,
      "##qjj": 6011,
      "##ryw": 6012,
      "##1f3": 6013,
      "##arte": 6014,
      "##513": 6015,
      "nan": 6016,
      "##eya": 6017,
      "##qhw": 6018,
      "marketing": 6019,
      "##utg": 6020,
      "##oxp": 6021,
      "##qjx": 6022,
      "##ivx": 6023,
      "##avd": 6024,
      "##qwj": 6025,
      "##1d3": 6026,
      "##tnm": 6027,
      "##ewd": 6028,
      "##urc": 6029,
      "ger": 6030,
      "##olx": 6031,
      "jess": 6032,
      "##ifs": 6033,
      "##ihu": 6034,
      "##itech": 6035,
      "##ivj": 6036,
      "##ppp": 6037,
      "##1db": 6038,
      "##a12": 6039,
      "##tpx": 6040,
      "##ayx": 6041,
      "aud": 6042,
      "##idj": 6043,
      "##avv": 6044,
      "##qmk": 6045,
      "##tyw": 6046,
      "##519": 6047,
      "##osu": 6048,
      "##14b": 6049,
      "##olz": 6050,
      "##slv": 6051,
      "##ections": 6052,
      "tab": 6053,
      "##ihl": 6054,
      "##otion": 6055,
      "##ipc": 6056,
      "##ovx": 6057,
      "##ikx": 6058,
      "##qgw": 6059,
      "hen": 6060,
      "##ective": 6061,
      "custom": 6062,
      "##aqu": 6063,
      "##qxw": 6064,
      "##engineering": 6065,
      "##812": 6066,
      "##usion": 6067,
      "##apv": 6068,
      "##qkh": 6069,
      "##smv": 6070,
      "##swr": 6071,
      "##uvj": 6072,
      "##ocf": 6073,
      "foot": 6074,
      "house": 6075,
      "##ucd": 6076,
      "##777": 6077,
      "##qdy": 6078,
      "bir": 6079,
      "##imt": 6080,
      "glo": 6081,
      "##ijp": 6082,
      "##ivh": 6083,
      "##ojd": 6084,
      "ven": 6085,
      "##epc": 6086,
      "##iyk": 6087,
      "vide": 6088,
      "##ucw": 6089,
      "##ekb": 6090,
      "##uwf": 6091,
      "##qyx": 6092,
      "##qwx": 6093,
      "##nny": 6094,
      "rap": 6095,
      "##eyo": 6096,
      "##ubd": 6097,
      "##adn": 6098,
      "##ayu": 6099,
      "##aec": 6100,
      "##emg": 6101,
      "##obi": 6102,
      "##ihw": 6103,
      "##spn": 6104,
      "##slr": 6105,
      "##onth": 6106,
      "##entrum": 6107,
      "##office": 6108,
      "##amw": 6109,
      "##1i7": 6110,
      "##qrn": 6111,
      "##qyj": 6112,
      "##qvx": 6113,
      "##tsl": 6114,
      "##ibo": 6115,
      "bul": 6116,
      "##owo": 6117,
      "angel": 6118,
      "##ozh": 6119,
      "love": 6120,
      "##acher": 6121,
      "##ifv": 6122,
      "##1qn": 6123,
      "lot": 6124,
      "##oyu": 6125,
      "##bean": 6126,
      "##prg": 6127,
      "##ujf": 6128,
      "##uca": 6129,
      "##andp": 6130,
      "##uwx": 6131,
      "##unz": 6132,
      "##ehv": 6133,
      "ill": 6134,
      "##tml": 6135,
      "##ijo": 6136,
      "##ingp": 6137,
      "##plv": 6138,
      "south": 6139,
      "##1ah": 6140,
      "##oki": 6141,
      "techn": 6142,
      "##qfv": 6143,
      "##ifd": 6144,
      "##ifh": 6145,
      "##spd": 6146,
      "##uwj": 6147,
      "##nnm": 6148,
      "##amj": 6149,
      "cir": 6150,
      "##spor": 6151,
      "##ryl": 6152,
      "##kym": 6153,
      "##trr": 6154,
      "##exico": 6155,
      "##ohf": 6156,
      "##qlh": 6157,
      "##35d": 6158,
      "autom": 6159,
      "russ": 6160,
      "##ajj": 6161,
      "##1fb": 6162,
      "##1ix": 6163,
      "##izy": 6164,
      "##ekj": 6165,
      "##31j": 6166,
      "##apj": 6167,
      "oce": 6168,
      "##skv": 6169,
      "##nrm": 6170,
      "##etro": 6171,
      "##cars": 6172,
      "mass": 6173,
      "##ektr": 6174,
      "##ryp": 6175,
      "##exw": 6176,
      "##tmm": 6177,
      "##edge": 6178,
      "##ucx": 6179,
      "##tfr": 6180,
      "##31g": 6181,
      "gor": 6182,
      "##qpd": 6183,
      "##tpw": 6184,
      "##ustries": 6185,
      "##tmv": 6186,
      "##obj": 6187,
      "##tlv": 6188,
      "##ofing": 6189,
      "##ooo": 6190,
      "plan": 6191,
      "##exl": 6192,
      "##tpy": 6193,
      "##ihf": 6194,
      "##anger": 6195,
      "##ejm": 6196,
      "##tnv": 6197,
      "##38d": 6198,
      "project": 6199,
      "cin": 6200,
      "##31h": 6201,
      "##717": 6202,
      "##qjf": 6203,
      "nak": 6204,
      "##1ud": 6205,
      "##716": 6206,
      "##1mv": 6207,
      "##istic": 6208,
      "##qgx": 6209,
      "eco": 6210,
      "##qsv": 6211,
      "##tnr": 6212,
      "##uer": 6213,
      "mur": 6214,
      "##oyb": 6215,
      "##1sr": 6216,
      "##tyv": 6217,
      "##stx": 6218,
      "##uyg": 6219,
      "##egn": 6220,
      "##61h": 6221,
      "##qjl": 6222,
      "##ejv": 6223,
      "##uvl": 6224,
      "##iyg": 6225,
      "##uvx": 6226,
      "##uyp": 6227,
      "##uxp": 6228,
      "##usz": 6229,
      "##ogp": 6230,
      "##a1c": 6231,
      "##i45": 6232,
      "##agw": 6233,
      "##afk": 6234,
      "##719": 6235,
      "##rez": 6236,
      "##918": 6237,
      "apr": 6238,
      "##ofx": 6239,
      "##pmr": 6240,
      "##919": 6241,
      "##emen": 6242,
      "##ifa": 6243,
      "##1mz": 6244,
      "nor": 6245,
      "##61n": 6246,
      "##ivp": 6247,
      "##uhx": 6248,
      "##ivn": 6249,
      "##21g": 6250,
      "##ajd": 6251,
      "##712": 6252,
      "##evl": 6253,
      "##english": 6254,
      "##i65": 6255,
      "##qsn": 6256,
      "##31k": 6257,
      "##ecenter": 6258,
      "learn": 6259,
      "##818": 6260,
      "##1qm": 6261,
      "##otc": 6262,
      "##ahe": 6263,
      "##718": 6264,
      "##21h": 6265,
      "##i25": 6266,
      "##prop": 6267,
      "##uwh": 6268,
      "##adu": 6269,
      "##ohx": 6270,
      "##1pv": 6271,
      "##ubv": 6272,
      "##ufl": 6273,
      "##tys": 6274,
      "##qnn": 6275,
      "##qfr": 6276,
      "##i55": 6277,
      "##817": 6278,
      "##tsk": 6279,
      "##uwl": 6280,
      "##amed": 6281,
      "##iday": 6282,
      "##official": 6283,
      "amaz": 6284,
      "##anu": 6285,
      "##uxl": 6286,
      "##ohp": 6287,
      "##912": 6288,
      "##qvf": 6289,
      "##1yf": 6290,
      "zt": 6291,
      "##cil": 6292,
      "##510": 6293,
      "##qjp": 6294,
      "##qvl": 6295,
      "##61j": 6296,
      "##ced": 6297,
      "##ukn": 6298,
      "sad": 6299,
      "##qvp": 6300,
      "##31n": 6301,
      "##iwl": 6302,
      "##e19": 6303,
      "##utn": 6304,
      "##upo": 6305,
      "##iwd": 6306,
      "##61k": 6307,
      "##olu": 6308,
      "##30d": 6309,
      "##door": 6310,
      "##21k": 6311,
      "##a1b": 6312,
      "##uvf": 6313,
      "##915": 6314,
      "##itan": 6315,
      "set": 6316,
      "##addy": 6317,
      "##1q7": 6318,
      "planet": 6319,
      "##ewf": 6320,
      "##tlm": 6321,
      "##uwd": 6322,
      "##qkd": 6323,
      "##qfw": 6324,
      "##alls": 6325,
      "##udf": 6326,
      "##owx": 6327,
      "##twr": 6328,
      "hop": 6329,
      "##1yv": 6330,
      "##21j": 6331,
      "##ecret": 6332,
      "##qsj": 6333,
      "##1yz": 6334,
      "ost": 6335,
      "##evw": 6336,
      "##913": 6337,
      "##ucf": 6338,
      "##ejr": 6339,
      "##uhf": 6340,
      "famil": 6341,
      "##esch": 6342,
      "##craft": 6343,
      "##61g": 6344,
      "##ugp": 6345,
      "##qoq": 6346,
      "##essor": 6347,
      "##upb": 6348,
      "##28d": 6349,
      "##krm": 6350,
      "##tpj": 6351,
      "##mmm": 6352,
      "##ryf": 6353,
      "merc": 6354,
      "##qwp": 6355,
      "pok": 6356,
      "##qmn": 6357,
      "qi": 6358,
      "##qhj": 6359,
      "##trv": 6360,
      "##phr": 6361,
      "##odh": 6362,
      "##ipb": 6363,
      "##ahu": 6364,
      "##ojk": 6365,
      "##smw": 6366,
      "##813": 6367,
      "##ejf": 6368,
      "##orum": 6369,
      "##1m7": 6370,
      "rent": 6371,
      "##otb": 6372,
      "##666": 6373,
      "##914": 6374,
      "##heim": 6375,
      "##ewe": 6376,
      "##idb": 6377,
      "##uhd": 6378,
      "uni": 6379,
      "##917": 6380,
      "##qhx": 6381,
      "##qwl": 6382,
      "##iwx": 6383,
      "##qwf": 6384,
      "##atan": 6385,
      "##qyl": 6386,
      "##qtk": 6387,
      "##icx": 6388,
      "##afi": 6389,
      "mit": 6390,
      "##ahp": 6391,
      "##amn": 6392,
      "##odv": 6393,
      "##iyu": 6394,
      "##axf": 6395,
      "##chy": 6396,
      "##olasite": 6397,
      "##qsw": 6398,
      "##713": 6399,
      "##ukg": 6400,
      "##ibf": 6401,
      "##ikn": 6402,
      "##ifx": 6403,
      "##phm": 6404,
      "lor": 6405,
      "##epj": 6406,
      "##evv": 6407,
      "##ixg": 6408,
      "##ujl": 6409,
      "yolasite": 6410,
      "##sta": 6411,
      "eth": 6412,
      "##ohk": 6413,
      "##815": 6414,
      "##ehk": 6415,
      "##1mf": 6416,
      "##1ak": 6417,
      "##qpg": 6418,
      "##ecv": 6419,
      "##oho": 6420,
      "##std": 6421,
      "##1ij": 6422,
      "##uyk": 6423,
      "##qrd": 6424,
      "##aht": 6425,
      "##qng": 6426,
      "##cat": 6427,
      "##tny": 6428,
      "##gle": 6429,
      "ord": 6430,
      "##char": 6431,
      "##lean": 6432,
      "haus": 6433,
      "##igj": 6434,
      "##hub": 6435,
      "##uhj": 6436,
      "##715": 6437,
      "##1yy": 6438,
      "##ojn": 6439,
      "##ufx": 6440,
      "##qyp": 6441,
      "##21n": 6442,
      "##bdc": 6443,
      "##1ob": 6444,
      "chic": 6445,
      "##utrition": 6446,
      "dyn": 6447,
      "##qnd": 6448,
      "##401": 6449,
      "##lyy": 6450,
      "##achin": 6451,
      "##views": 6452,
      "##cdc": 6453,
      "##aae": 6454,
      "##1u7": 6455,
      "##1wd": 6456,
      "##qlk": 6457,
      "##srw": 6458,
      "##special": 6459,
      "##ohh": 6460,
      "##qmd": 6461,
      "##erts": 6462,
      "##ibv": 6463,
      "##scy": 6464,
      "creativ": 6465,
      "##916": 6466,
      "bey": 6467,
      "##a10": 6468,
      "##41k": 6469,
      "wor": 6470,
      "##81f": 6471,
      "##qyf": 6472,
      "##qyd": 6473,
      "##exr": 6474,
      "##ivg": 6475,
      "card": 6476,
      "##qkk": 6477,
      "##ejw": 6478,
      "##e18": 6479,
      "##grp": 6480,
      "din": 6481,
      "rich": 6482,
      "##qxj": 6483,
      "##usu": 6484,
      "##uya": 6485,
      "##ezz": 6486,
      "##1x9": 6487,
      "##819": 6488,
      "##ihx": 6489,
      "##aire": 6490,
      "##ejd": 6491,
      "##qvh": 6492,
      "##1t9": 6493,
      "mund": 6494,
      "##omt": 6495,
      "##tvm": 6496,
      "##ogx": 6497,
      "##iha": 6498,
      "typepad": 6499,
      "##uvh": 6500,
      "##qrg": 6501,
      "##lyw": 6502,
      "##brand": 6503,
      "##1qb": 6504,
      "att": 6505,
      "##ppy": 6506,
      "##sho": 6507,
      "##1pw": 6508,
      "kun": 6509,
      "##eha": 6510,
      "##icu": 6511,
      "##okb": 6512,
      "##smp": 6513,
      "##ppj": 6514,
      "##41h": 6515,
      "##1y7": 6516,
      "##qwh": 6517,
      "bah": 6518,
      "##smith": 6519,
      "##ujp": 6520,
      "##ekp": 6521,
      "##1vw": 6522,
      "##ummit": 6523,
      "##seo": 6524,
      "##ubw": 6525,
      "##tlr": 6526,
      "##ecare": 6527,
      "##epk": 6528,
      "##cfb": 6529,
      "##colo": 6530,
      "alp": 6531,
      "bik": 6532,
      "##71d": 6533,
      "##ppw": 6534,
      "##agf": 6535,
      "##1vv": 6536,
      "##1lv": 6537,
      "##ihj": 6538,
      "##1vy": 6539,
      "bot": 6540,
      "##1ux": 6541,
      "##avf": 6542,
      "##nyd": 6543,
      "##1oc": 6544,
      "##l18": 6545,
      "##kyd": 6546,
      "marc": 6547,
      "##ipa": 6548,
      "##uvp": 6549,
      "##eport": 6550,
      "##axd": 6551,
      "##1id": 6552,
      "##1w9": 6553,
      "stream": 6554,
      "##stream": 6555,
      "##apb": 6556,
      "##41n": 6557,
      "##ewv": 6558,
      "##avk": 6559,
      "##lys": 6560,
      "##1ov": 6561,
      "##i35": 6562,
      "##1md": 6563,
      "##1y8": 6564,
      "##1py": 6565,
      "##ehf": 6566,
      "##inu": 6567,
      "##akn": 6568,
      "##eww": 6569,
      "##345": 6570,
      "##edesign": 6571,
      "##1yd": 6572,
      "##1pz": 6573,
      "##tkm": 6574,
      "##ifj": 6575,
      "##1v9": 6576,
      "##ufd": 6577,
      "##ozd": 6578,
      "##ulz": 6579,
      "##icz": 6580,
      "##odw": 6581,
      "##qyh": 6582,
      "##ihh": 6583,
      "##eab": 6584,
      "##qjh": 6585,
      "##714": 6586,
      "##1p8": 6587,
      "##1q8": 6588,
      "rub": 6589,
      "##41g": 6590,
      "##orrent": 6591,
      "##oyt": 6592,
      "##lyb": 6593,
      "##tkv": 6594,
      "##pll": 6595,
      "##srp": 6596,
      "nar": 6597,
      "##obv": 6598,
      "##tyy": 6599,
      "##qxf": 6600,
      "indian": 6601,
      "##ixt": 6602,
      "##eef": 6603,
      "##qsk": 6604,
      "##syr": 6605,
      "##c12": 6606,
      "##1s9": 6607,
      "##qsl": 6608,
      "##aming": 6609,
      "##plj": 6610,
      "##1u9": 6611,
      "##lover": 6612,
      "##edx": 6613,
      "##1oj": 6614,
      "bil": 6615,
      "##1wz": 6616,
      "##iwk": 6617,
      "##1o8": 6618,
      "##qln": 6619,
      "##aust": 6620,
      "##1m8": 6621,
      "##1l8": 6622,
      "##1u8": 6623,
      "##qtr": 6624,
      "##pmv": 6625,
      "##ersonal": 6626,
      "##1oq": 6627,
      "##oru": 6628,
      "##afw": 6629,
      "##1uy": 6630,
      "##ighting": 6631,
      "##1qk": 6632,
      "##blf": 6633,
      "##1xy": 6634,
      "##1i8": 6635,
      "##1w8": 6636,
      "##lyv": 6637,
      "##1my": 6638,
      "##1v8": 6639,
      "##e12": 6640,
      "##exg": 6641,
      "##1xv": 6642,
      "##1lz": 6643,
      "##1p9": 6644,
      "##e15": 6645,
      "##1ea": 6646,
      "##34d": 6647,
      "##osi": 6648,
      "##uji": 6649,
      "##1lx": 6650,
      "##qsx": 6651,
      "##snp": 6652,
      "##uso": 6653,
      "##crm": 6654,
      "##epx": 6655,
      "##1mw": 6656,
      "##1iy": 6657,
      "##ujd": 6658,
      "##41j": 6659,
      "##1wv": 6660,
      "##ourney": 6661,
      "##uvd": 6662,
      "##qtj": 6663,
      "##1x8": 6664,
      "##myd": 6665,
      "##1ig": 6666,
      "##iwp": 6667,
      "##fast": 6668,
      "##ehw": 6669,
      "##ingw": 6670,
      "hab": 6671,
      "##uko": 6672,
      "##1xd": 6673,
      "##uzh": 6674,
      "##alz": 6675,
      "##01m": 6676,
      "##1mx": 6677,
      "##qvk": 6678,
      "##1q9": 6679,
      "ten": 6680,
      "tat": 6681,
      "##1uc": 6682,
      "##oxg": 6683,
      "##friend": 6684,
      "##bbc": 6685,
      "##1m9": 6686,
      "##1vf": 6687,
      "##ablog": 6688,
      "##ryh": 6689,
      "##1r7": 6690,
      "##eeb": 6691,
      "##qdv": 6692,
      "##1i9": 6693,
      "##1ee": 6694,
      "##evf": 6695,
      "##1og": 6696,
      "##ubh": 6697,
      "##ejj": 6698,
      "##e13": 6699,
      "##1t8": 6700,
      "##q1j": 6701,
      "##q1g": 6702,
      "##udj": 6703,
      "##ujh": 6704,
      "phot": 6705,
      "##sjr": 6706,
      "##bld": 6707,
      "##shv": 6708,
      "##1lw": 6709,
      "dun": 6710,
      "##ufj": 6711,
      "##byj": 6712,
      "##1pm": 6713,
      "##ajr": 6714,
      "##1px": 6715,
      "##abor": 6716,
      "##udx": 6717,
      "##uwp": 6718,
      "##1rd": 6719,
      "innov": 6720,
      "##10m": 6721,
      "##qdm": 6722,
      "##ugo": 6723,
      "##umbing": 6724,
      "mem": 6725,
      "care": 6726,
      "chat": 6727,
      "##c16": 6728,
      "##ocol": 6729,
      "##syy": 6730,
      "##qxx": 6731,
      "##anat": 6732,
      "##isen": 6733,
      "##isz": 6734,
      "##srj": 6735,
      "##20d": 6736,
      "##1sz": 6737,
      "##adas": 6738,
      "##ewj": 6739,
      "hum": 6740,
      "paul": 6741,
      "##qgj": 6742,
      "##b68": 6743,
      "##1vd": 6744,
      "##1wy": 6745,
      "##tyg": 6746,
      "##idn": 6747,
      "##nrr": 6748,
      "##1oh": 6749,
      "##sfw": 6750,
      "##away": 6751,
      "wear": 6752,
      "##ocv": 6753,
      "##1r8": 6754,
      "##1lf": 6755,
      "##elu": 6756,
      "##1vz": 6757,
      "##svm": 6758,
      "##25d": 6759,
      "syn": 6760,
      "##1ts": 6761,
      "##e14": 6762,
      "##51k": 6763,
      "##1yj": 6764,
      "##1rv": 6765,
      "##1ld": 6766,
      "equ": 6767,
      "lil": 6768,
      "##imc": 6769,
      "##1xm": 6770,
      "##1rf": 6771,
      "##1am": 6772,
      "##1tb": 6773,
      "len": 6774,
      "##otels": 6775,
      "##idc": 6776,
      "##q1h": 6777,
      "##ebh": 6778,
      "##b58": 6779,
      "##ople": 6780,
      "##1rx": 6781,
      "games": 6782,
      "##1pr": 6783,
      "##oti": 6784,
      "##plw": 6785,
      "##oxk": 6786,
      "##1pd": 6787,
      "##51g": 6788,
      "##idp": 6789,
      "##1y9": 6790,
      "##qtv": 6791,
      "##1x7": 6792,
      "##uvk": 6793,
      "##pment": 6794,
      "##afv": 6795,
      "##ixk": 6796,
      "##sjm": 6797,
      "##byt": 6798,
      "##1xx": 6799,
      "##e1b": 6800,
      "##ibw": 6801,
      "##chw": 6802,
      "##1o7": 6803,
      "##qkn": 6804,
      "##lyj": 6805,
      "##lyp": 6806,
      "##1pf": 6807,
      "##apw": 6808,
      "##qgf": 6809,
      "##onesia": 6810,
      "##sgm": 6811,
      "##cfd": 6812,
      "##utu": 6813,
      "##apartments": 6814,
      "##1ww": 6815,
      "##uccess": 6816,
      "nas": 6817,
      "##91f": 6818,
      "##ogk": 6819,
      "##1t7": 6820,
      "##swh": 6821,
      "##1tz": 6822,
      "##oce": 6823,
      "##axw": 6824,
      "##nlm": 6825,
      "##uhn": 6826,
      "##1s7": 6827,
      "##qfx": 6828,
      "##iru": 6829,
      "##opb": 6830,
      "trad": 6831,
      "##1tp": 6832,
      "##ugn": 6833,
      "##1rw": 6834,
      "main": 6835,
      "##ihp": 6836,
      "##cac": 6837,
      "##1wm": 6838,
      "##munic": 6839,
      "##51h": 6840,
      "##tnw": 6841,
      "##b48": 6842,
      "##01y": 6843,
      "##51n": 6844,
      "##egv": 6845,
      "##evh": 6846,
      "##1p7": 6847,
      "##91d": 6848,
      "##1sp": 6849,
      "##ekg": 6850,
      "##1yw": 6851,
      "##amor": 6852,
      "##91c": 6853,
      "##nnr": 6854,
      "##cff": 6855,
      "##stk": 6856,
      "##atec": 6857,
      "##egw": 6858,
      "##klm": 6859,
      "##akj": 6860,
      "##shw": 6861,
      "##eaa": 6862,
      "##1rz": 6863,
      "##60d": 6864,
      "##ajh": 6865,
      "##ejl": 6866,
      "##e16": 6867,
      "##ified": 6868,
      "##grm": 6869,
      "##ezh": 6870,
      "##i1k": 6871,
      "##tec": 6872,
      "##1mj": 6873,
      "##sbb": 6874,
      "##ewell": 6875,
      "##aje": 6876,
      "##qwk": 6877,
      "##upq": 6878,
      "##1yx": 6879,
      "##qxl": 6880,
      "##egf": 6881,
      "##eea": 6882,
      "##ajw": 6883,
      "##1xz": 6884,
      "##1sb": 6885,
      "xi": 6886,
      "##aren": 6887,
      "##1v7": 6888,
      "##tmj": 6889,
      "##upe": 6890,
      "##ryv": 6891,
      "##ertainment": 6892,
      "##51j": 6893,
      "##uco": 6894,
      "##91b": 6895,
      "##uxe": 6896,
      "##1ow": 6897,
      "##1vm": 6898,
      "##814": 6899,
      "##qjk": 6900,
      "##qwd": 6901,
      "god": 6902,
      "##1ay": 6903,
      "##umu": 6904,
      "##igp": 6905,
      "##ejx": 6906,
      "##1rm": 6907,
      "##icket": 6908,
      "##qvd": 6909,
      "##srx": 6910,
      "pow": 6911,
      "##erx": 6912,
      "##qxp": 6913,
      "##q1n": 6914,
      "open": 6915,
      "##ildr": 6916,
      "##1wf": 6917,
      "##1s8": 6918,
      "##andd": 6919,
      "##skw": 6920,
      "##71c": 6921,
      "##exb": 6922,
      "##ajv": 6923,
      "##ihk": 6924,
      "##uhh": 6925,
      "##1x2": 6926,
      "##1ym": 6927,
      "##rys": 6928,
      "##action": 6929,
      "sah": 6930,
      "##brasil": 6931,
      "##cycl": 6932,
      "##ilms": 6933,
      "##ingr": 6934,
      "##sgy": 6935,
      "##qpr": 6936,
      "##71b": 6937,
      "##1r9": 6938,
      "##utsch": 6939,
      "##aww": 6940,
      "##sfl": 6941,
      "##cef": 6942,
      "##reak": 6943,
      "##plp": 6944,
      "##1mm": 6945,
      "##swm": 6946,
      "##nmr": 6947,
      "##loo": 6948,
      "##2020": 6949,
      "##1o9": 6950,
      "##qhl": 6951,
      "##svr": 6952,
      "##1ey": 6953,
      "##1xj": 6954,
      "##uhp": 6955,
      "##qhf": 6956,
      "##acv": 6957,
      "##qdw": 6958,
      "##ehj": 6959,
      "##1lm": 6960,
      "##c1d": 6961,
      "##1vx": 6962,
      "##qgl": 6963,
      "##udl": 6964,
      "##ewl": 6965,
      "##phd": 6966,
      "##1xw": 6967,
      "##i1n": 6968,
      "##ael": 6969,
      "##sps": 6970,
      "##exj": 6971,
      "##smj": 6972,
      "##1wx": 6973,
      "##link": 6974,
      "gay": 6975,
      "##tyj": 6976,
      "##snx": 6977,
      "sug": 6978,
      "##i1j": 6979,
      "##q1k": 6980,
      "##1xf": 6981,
      "##e17": 6982,
      "tun": 6983,
      "##igx": 6984,
      "##ojg": 6985,
      "##1w7": 6986,
      "iran": 6987,
      "##onto": 6988,
      "##sxm": 6989,
      "##odk": 6990,
      "##11n": 6991,
      "##sfm": 6992,
      "##e1c": 6993,
      "##agv": 6994,
      "##ufh": 6995,
      "##tsj": 6996,
      "##c17": 6997,
      "##smx": 6998,
      "##1l7": 6999,
      "##ivi": 7000,
      "##shd": 7001,
      "##01v": 7002,
      "##qxh": 7003,
      "##qom": 7004,
      "##etch": 7005,
      "##tnj": 7006,
      "##tdr": 7007,
      "##e1f": 7008,
      "##agroup": 7009,
      "##sjv": 7010,
      "##ovg": 7011,
      "##qkg": 7012,
      "##e1d": 7013,
      "##qfj": 7014,
      "##elier": 7015,
      "vid": 7016,
      "##cec": 7017,
      "##afx": 7018,
      "##skj": 7019,
      "tip": 7020,
      "##81d": 7021,
      "##efx": 7022,
      "##obw": 7023,
      "##sjy": 7024,
      "##rees": 7025,
      "##i1h": 7026,
      "##izd": 7027,
      "##1l9": 7028,
      "##1uk": 7029,
      "##akg": 7030,
      "##stuff": 7031,
      "##icn": 7032,
      "##blm": 7033,
      "##odb": 7034,
      "##c1c": 7035,
      "##1ap": 7036,
      "##odj": 7037,
      "##oder": 7038,
      "##1ur": 7039,
      "##evj": 7040,
      "##c1f": 7041,
      "##expert": 7042,
      "##qmg": 7043,
      "##1mr": 7044,
      "##slw": 7045,
      "lis": 7046,
      "##spg": 7047,
      "##qlg": 7048,
      "##710": 7049,
      "##ajf": 7050,
      "##uxg": 7051,
      "mes": 7052,
      "##bon": 7053,
      "##nrv": 7054,
      "tin": 7055,
      "##qtw": 7056,
      "##ucj": 7057,
      "##1lj": 7058,
      "##myr": 7059,
      "##sto": 7060,
      "##c14": 7061,
      "##akp": 7062,
      "##ources": 7063,
      "##shk": 7064,
      "##nnv": 7065,
      "##ague": 7066,
      "##ennis": 7067,
      "##snl": 7068,
      "##qdr": 7069,
      "##1ep": 7070,
      "##trw": 7071,
      "patr": 7072,
      "xxx": 7073,
      "##iwg": 7074,
      "##ekx": 7075,
      "##1ug": 7076,
      "##iyb": 7077,
      "##uxk": 7078,
      "##c18": 7079,
      "##iju": 7080,
      "##tom": 7081,
      "##ubg": 7082,
      "##27d": 7083,
      "##1oy": 7084,
      "##ibx": 7085,
      "##qgp": 7086,
      "##ujk": 7087,
      "##ozm": 7088,
      "##ijg": 7089,
      "##qhp": 7090,
      "##qgh": 7091,
      "##idk": 7092,
      "##avw": 7093,
      "##slp": 7094,
      "##38f": 7095,
      "##uyu": 7096,
      "##qph": 7097,
      "##1ir": 7098,
      "##eless": 7099,
      "##awg": 7100,
      "##01x": 7101,
      "##12m": 7102,
      "##syl": 7103,
      "##odn": 7104,
      "##efw": 7105,
      "##lyg": 7106,
      "##qop": 7107,
      "##egur": 7108,
      "##qhh": 7109,
      "##forum": 7110,
      "rain": 7111,
      "##ubf": 7112,
      "##uyn": 7113,
      "##1u5": 7114,
      "##iho": 7115,
      "##comm": 7116,
      "##65d": 7117,
      "##24d": 7118,
      "##ifk": 7119,
      "##1x5": 7120,
      "##stone": 7121,
      "##ryr": 7122,
      "any": 7123,
      "##b28": 7124,
      "##ising": 7125,
      "##1im": 7126,
      "##uti": 7127,
      "##trl": 7128,
      "loj": 7129,
      "##1qr": 7130,
      "##tlw": 7131,
      "##agem": 7132,
      "##sgl": 7133,
      "pass": 7134,
      "##eec": 7135,
      "japan": 7136,
      "##loz": 7137,
      "##c15": 7138,
      "##qur": 7139,
      "##qqn": 7140,
      "##thd": 7141,
      "##sha": 7142,
      "##uwk": 7143,
      "##egd": 7144,
      "##pvm": 7145,
      "##qqp": 7146,
      "##abu": 7147,
      "##avn": 7148,
      "##36d": 7149,
      "##ahi": 7150,
      "##910": 7151,
      "##tjr": 7152,
      "##cour": 7153,
      "##ejh": 7154,
      "##byf": 7155,
      "##ahg": 7156,
      "##tmw": 7157,
      "##abk": 7158,
      "##1v5": 7159,
      "##81c": 7160,
      "##tyn": 7161,
      "##ping": 7162,
      "##ugb": 7163,
      "##1gd": 7164,
      "bill": 7165,
      "##uvg": 7166,
      "##nrw": 7167,
      "##39d": 7168,
      "7sb": 7169,
      "##ceb": 7170,
      "##attoo": 7171,
      "##swv": 7172,
      "##qgd": 7173,
      "##oqs": 7174,
      "##tvr": 7175,
      "##afh": 7176,
      "##1yr": 7177,
      "##1y5": 7178,
      "##1rj": 7179,
      "##ixs": 7180,
      "##c1b": 7181,
      "##pyr": 7182,
      "##kyy": 7183,
      "##qfl": 7184,
      "##myf": 7185,
      "sor": 7186,
      "##egas": 7187,
      "##igb": 7188,
      "##1of": 7189,
      "##1ql": 7190,
      "##1hv": 7191,
      "##syd": 7192,
      "##37d": 7193,
      "##ehh": 7194,
      "##azi": 7195,
      "##utch": 7196,
      "now": 7197,
      "##1um": 7198,
      "##lyl": 7199,
      "163": 7200,
      "##qqm": 7201,
      "##evk": 7202,
      "dail": 7203,
      "##idx": 7204,
      "##sgv": 7205,
      "##them": 7206,
      "##esx": 7207,
      "##1ek": 7208,
      "##c13": 7209,
      "##1em": 7210,
      "##tjv": 7211,
      "##nvm": 7212,
      "##pmj": 7213,
      "##medical": 7214,
      "fel": 7215,
      "vic": 7216,
      "##agp": 7217,
      "##u1j": 7218,
      "##blac": 7219,
      "##arter": 7220,
      "##20f": 7221,
      "##byr": 7222,
      "##1q5": 7223,
      "##esz": 7224,
      "##uvn": 7225,
      "##qsr": 7226,
      "##snh": 7227,
      "##ecw": 7228,
      "##ubx": 7229,
      "##u1k": 7230,
      "##abw": 7231,
      "##obx": 7232,
      "##iji": 7233,
      "##artin": 7234,
      "##1o5": 7235,
      "got": 7236,
      "##adp": 7237,
      "##chat": 7238,
      "##ebn": 7239,
      "##1vj": 7240,
      "##pjm": 7241,
      "##uwg": 7242,
      "##1ok": 7243,
      "20": 7244,
      "##tpf": 7245,
      "##salon": 7246,
      "##thw": 7247,
      "##oxn": 7248,
      "##ppx": 7249,
      "##1w5": 7250,
      "##1at": 7251,
      "##ihn": 7252,
      "##uzy": 7253,
      "##rea": 7254,
      "##01w": 7255,
      "wall": 7256,
      "nom": 7257,
      "##eas": 7258,
      "##qjd": 7259,
      "##sml": 7260,
      "##twm": 7261,
      "##81b": 7262,
      "##1un": 7263,
      "##management": 7264,
      "##1pj": 7265,
      "##1qp": 7266,
      "##ixb": 7267,
      "##1l5": 7268,
      "##1et": 7269,
      "##avh": 7270,
      "##iyn": 7271,
      "yoo7": 7272,
      "##trading": 7273,
      "##1ut": 7274,
      "##loor": 7275,
      "##efk": 7276,
      "##1m5": 7277,
      "##smd": 7278,
      "##1hy": 7279,
      "##29d": 7280,
      "##1op": 7281,
      "##ufk": 7282,
      "jen": 7283,
      "##1om": 7284,
      "##ewp": 7285,
      "##1gv": 7286,
      "gym": 7287,
      "##1ik": 7288,
      "##ugi": 7289,
      "##axh": 7290,
      "##plx": 7291,
      "easy": 7292,
      "##commerce": 7293,
      "##u1n": 7294,
      "##realestate": 7295,
      "##1gy": 7296,
      "##qhd": 7297,
      "##e10": 7298,
      "##phv": 7299,
      "##oxs": 7300,
      "##estudio": 7301,
      "##1o4": 7302,
      "##byh": 7303,
      "##uhk": 7304,
      "dental": 7305,
      "##1wj": 7306,
      "##ocw": 7307,
      "##uar": 7308,
      "##1t5": 7309,
      "##izi": 7310,
      "##axv": 7311,
      "##qjn": 7312,
      "##qxd": 7313,
      "##kyr": 7314,
      "##qyk": 7315,
      "fitness": 7316,
      "##tgm": 7317,
      "loxblog": 7318,
      "##1gw": 7319,
      "##syn": 7320,
      "##1p5": 7321,
      "##snf": 7322,
      "##svv": 7323,
      "##1h7": 7324,
      "##qwg": 7325,
      "##ppk": 7326,
      "##tur": 7327,
      "##efj": 7328,
      "event": 7329,
      "##igk": 7330,
      "##syw": 7331,
      "##sblog": 7332,
      "abb": 7333,
      "##abg": 7334,
      "##slj": 7335,
      "##kyf": 7336,
      "##evg": 7337,
      "##eho": 7338,
      "##amas": 7339,
      "##ryy": 7340,
      "silver": 7341,
      "bak": 7342,
      "##avj": 7343,
      "##nyj": 7344,
      "##olis": 7345,
      "print": 7346,
      "##s11": 7347,
      "##mmr": 7348,
      "##qtx": 7349,
      "##outique": 7350,
      "##ajo": 7351,
      "##myw": 7352,
      "##pwm": 7353,
      "##z11": 7354,
      "##tnp": 7355,
      "##evn": 7356,
      "##ehx": 7357,
      "##19m": 7358,
      "##industries": 7359,
      "##ezd": 7360,
      "##30f": 7361,
      "##tel": 7362,
      "##ebv": 7363,
      "los": 7364,
      "##eworld": 7365,
      "##1u3": 7366,
      "ped": 7367,
      "##tjm": 7368,
      "##1ot": 7369,
      "##1r5": 7370,
      "##icon": 7371,
      "##smk": 7372,
      "##swy": 7373,
      "##pym": 7374,
      "##nrp": 7375,
      "##35f": 7376,
      "##cbb": 7377,
      "##68d": 7378,
      "##aun": 7379,
      "##kmr": 7380,
      "steph": 7381,
      "##sxy": 7382,
      "##adz": 7383,
      "##ewg": 7384,
      "##ibg": 7385,
      "wild": 7386,
      "##plf": 7387,
      "phil": 7388,
      "bol": 7389,
      "##tnx": 7390,
      "##krv": 7391,
      "##1hd": 7392,
      "##1y3": 7393,
      "##asket": 7394,
      "##ebp": 7395,
      "##myy": 7396,
      "##ebw": 7397,
      "##oqt": 7398,
      "##sll": 7399,
      "##1ar": 7400,
      "##trk": 7401,
      "##1u4": 7402,
      "##eki": 7403,
      "##ashop": 7404,
      "##uyo": 7405,
      "##qdj": 7406,
      "##america": 7407,
      "##cbf": 7408,
      "##imoveis": 7409,
      "##1jw": 7410,
      "##tmf": 7411,
      "speed": 7412,
      "##1hx": 7413,
      "##tkj": 7414,
      "##ioo": 7415,
      "##pjr": 7416,
      "##ifg": 7417,
      "##sdm": 7418,
      "##amx": 7419,
      "##grill": 7420,
      "##1al": 7421,
      "##24f": 7422,
      "##afj": 7423,
      "##illage": 7424,
      "##810": 7425,
      "##1up": 7426,
      "##odx": 7427,
      "##myp": 7428,
      "##quest": 7429,
      "##nrj": 7430,
      "##county": 7431,
      "##glass": 7432,
      "##1m2": 7433,
      "##qvn": 7434,
      "##ifp": 7435,
      "##efv": 7436,
      "##hym": 7437,
      "##amber": 7438,
      "##cer": 7439,
      "##1gf": 7440,
      "##1hz": 7441,
      "##1jy": 7442,
      "##sng": 7443,
      "##ujo": 7444,
      "##tkw": 7445,
      "##styl": 7446,
      "##smf": 7447,
      "##krr": 7448,
      "##1s5": 7449,
      "##ature": 7450,
      "##uds": 7451,
      "##tsx": 7452,
      "##ubj": 7453,
      "##1ky": 7454,
      "##slx": 7455,
      "##ppf": 7456,
      "##nmv": 7457,
      "##elz": 7458,
      "##srf": 7459,
      "##tmx": 7460,
      "##awj": 7461,
      "##1p4": 7462,
      "##qdf": 7463,
      "##qsp": 7464,
      "##epb": 7465,
      "##1ip": 7466,
      "##adis": 7467,
      "##qui": 7468,
      "##qdx": 7469,
      "radio": 7470,
      "##trx": 7471,
      "##ixn": 7472,
      "##eja": 7473,
      "##1hw": 7474,
      "##qon": 7475,
      "##ozl": 7476,
      "##kyl": 7477,
      "##tlj": 7478,
      "##uyt": 7479,
      "##nnj": 7480,
      "##otors": 7481,
      "##ufg": 7482,
      "build": 7483,
      "aug": 7484,
      "##a01": 7485,
      "##syv": 7486,
      "royal": 7487,
      "##awv": 7488,
      "link": 7489,
      "##azm": 7490,
      "##syf": 7491,
      "##tgy": 7492,
      "##stn": 7493,
      "##afg": 7494,
      "##tlx": 7495,
      "##kvm": 7496,
      "##skh": 7497,
      "##1m3": 7498,
      "##1o6": 7499,
      "##1q3": 7500,
      "##apx": 7501,
      "##ibj": 7502,
      "##trj": 7503,
      "##1it": 7504,
      "##1y4": 7505,
      "##12j": 7506,
      "##scm": 7507,
      "##sww": 7508,
      "##1t6": 7509,
      "##onet": 7510,
      "##elx": 7511,
      "##apg": 7512,
      "##qvg": 7513,
      "##qbv": 7514,
      "##epg": 7515,
      "##sjw": 7516,
      "##ulture": 7517,
      "##39f": 7518,
      "led": 7519,
      "##ajk": 7520,
      "##qyg": 7521,
      "##nlv": 7522,
      "##1i3": 7523,
      "hyp": 7524,
      "##tvv": 7525,
      "##akc": 7526,
      "##1v3": 7527,
      "##1h9": 7528,
      "##byl": 7529,
      "##uin": 7530,
      "##1nv": 7531,
      "##t11": 7532,
      "##stg": 7533,
      "##skf": 7534,
      "##tyk": 7535,
      "##1i5": 7536,
      "##sun": 7537,
      "##evx": 7538,
      "##exk": 7539,
      "##1t2": 7540,
      "##sdy": 7541,
      "##qor": 7542,
      "##ohg": 7543,
      "##thv": 7544,
      "##iwa": 7545,
      "##1lr": 7546,
      "##pmp": 7547,
      "##36f": 7548,
      "##etail": 7549,
      "##ewx": 7550,
      "##slf": 7551,
      "##tnl": 7552,
      "##1q4": 7553,
      "##chl": 7554,
      "##impl": 7555,
      "##1jv": 7556,
      "##28f": 7557,
      "lag": 7558,
      "##1gx": 7559,
      "##ukb": 7560,
      "##1g9": 7561,
      "##nyf": 7562,
      "##1wr": 7563,
      "##ecx": 7564,
      "##astro": 7565,
      "##1y6": 7566,
      "##pmf": 7567,
      "##1p2": 7568,
      "##nyp": 7569,
      "##pjv": 7570,
      "##1lo": 7571,
      "##owc": 7572,
      "##trp": 7573,
      "##1gz": 7574,
      "##myh": 7575,
      "##qbw": 7576,
      "##svy": 7577,
      "##enture": 7578,
      "##1g8": 7579,
      "##1jx": 7580,
      "##kyw": 7581,
      "##svw": 7582,
      "##ewa": 7583,
      "##php": 7584,
      "##qhk": 7585,
      "##kfr": 7586,
      "##tjy": 7587,
      "##njm": 7588,
      "##ewk": 7589,
      "##1rh": 7590,
      "##qxk": 7591,
      "##1s6": 7592,
      "##qbm": 7593,
      "##1t4": 7594,
      "##iii": 7595,
      "##thes": 7596,
      "##arten": 7597,
      "ray": 7598,
      "##ocx": 7599,
      "##oyz": 7600,
      "##ryj": 7601,
      "##pfl": 7602,
      "##1hf": 7603,
      "##1i4": 7604,
      "##1jf": 7605,
      "##1cy": 7606,
      "##prof": 7607,
      "##avg": 7608,
      "##ekc": 7609,
      "##ehealth": 7610,
      "##1v2": 7611,
      "##pmw": 7612,
      "##anes": 7613,
      "##qpt": 7614,
      "##1by": 7615,
      "##qjg": 7616,
      "##1r6": 7617,
      "##byy": 7618,
      "##uyb": 7619,
      "##1lh": 7620,
      "##1l4": 7621,
      "spir": 7622,
      "##tyx": 7623,
      "##tgl": 7624,
      "##shir": 7625,
      "##1v6": 7626,
      "##ozn": 7627,
      "##ahx": 7628,
      "##1o2": 7629,
      "##icals": 7630,
      "##1ic": 7631,
      "##ehp": 7632,
      "##ioi": 7633,
      "##1w2": 7634,
      "##1u6": 7635,
      "##1u2": 7636,
      "##onu": 7637,
      "##obk": 7638,
      "##skx": 7639,
      "##1hm": 7640,
      "##1gm": 7641,
      "##oza": 7642,
      "##ufp": 7643,
      "fox": 7644,
      "##ujn": 7645,
      "arab": 7646,
      "laf": 7647,
      "##acw": 7648,
      "##1jm": 7649,
      "##1x4": 7650,
      "##1jd": 7651,
      "##1wh": 7652,
      "##inch": 7653,
      "##1kx": 7654,
      "bibl": 7655,
      "##1p6": 7656,
      "##iau": 7657,
      "##17m": 7658,
      "##eci": 7659,
      "##otograf": 7660,
      "##txm": 7661,
      "##kyp": 7662,
      "##sjx": 7663,
      "##501": 7664,
      "##epn": 7665,
      "##ewo": 7666,
      "##18m": 7667,
      "##oge": 7668,
      "##60f": 7669,
      "##1km": 7670,
      "##nyv": 7671,
      "##auer": 7672,
      "##iwn": 7673,
      "##nnw": 7674,
      "##qro": 7675,
      "##marketing": 7676,
      "##1r4": 7677,
      "##1xr": 7678,
      "##tnf": 7679,
      "##1s4": 7680,
      "band": 7681,
      "##efh": 7682,
      "##loss": 7683,
      "##estyle": 7684,
      "##12v": 7685,
      "##srh": 7686,
      "##1j8": 7687,
      "##mmy": 7688,
      "##qov": 7689,
      "##1x6": 7690,
      "##37f": 7691,
      "##qfh": 7692,
      "##1kv": 7693,
      "##twv": 7694,
      "##1h8": 7695,
      "##ryn": 7696,
      "color": 7697,
      "##ipes": 7698,
      "##1l6": 7699,
      "##1r2": 7700,
      "high": 7701,
      "##uhg": 7702,
      "##1jz": 7703,
      "##oweb": 7704,
      "##sgw": 7705,
      "##1i6": 7706,
      "##qgk": 7707,
      "##27f": 7708,
      "##1ny": 7709,
      "##ocj": 7710,
      "##1nd": 7711,
      "##1rr": 7712,
      "##mmv": 7713,
      "##ffm": 7714,
      "##syj": 7715,
      "##nlr": 7716,
      "##1vh": 7717,
      "##nwm": 7718,
      "ddns": 7719,
      "##1nw": 7720,
      "##1kf": 7721,
      "##srk": 7722,
      "##1il": 7723,
      "##acg": 7724,
      "ank": 7725,
      "##oye": 7726,
      "##ujg": 7727,
      "##pwr": 7728,
      "##1bv": 7729,
      "##ubo": 7730,
      "##1kw": 7731,
      "##blv": 7732,
      "##1nx": 7733,
      "##1xh": 7734,
      "##sdf": 7735,
      "##c10": 7736,
      "##1m4": 7737,
      "##nyh": 7738,
      "##klv": 7739,
      "##29f": 7740,
      "portal": 7741,
      "##1an": 7742,
      "##usi": 7743,
      "##1es": 7744,
      "##qtp": 7745,
      "##ndm": 7746,
      "##kwm": 7747,
      "##1kd": 7748,
      "##odp": 7749,
      "##ppn": 7750,
      "##ollege": 7751,
      "##centre": 7752,
      "priv": 7753,
      "##ecj": 7754,
      "##egx": 7755,
      "##oji": 7756,
      "##1q6": 7757,
      "##ahan": 7758,
      "##skp": 7759,
      "##1n8": 7760,
      "##tkl": 7761,
      "##1vr": 7762,
      "##nrl": 7763,
      "##25f": 7764,
      "##69d": 7765,
      "##1w6": 7766,
      "##1w3": 7767,
      "##1v4": 7768,
      "##austr": 7769,
      "##1ul": 7770,
      "##axj": 7771,
      "##twy": 7772,
      "##nyy": 7773,
      "imag": 7774,
      "##cbc": 7775,
      "##ibi": 7776,
      "##kmv": 7777,
      "##udp": 7778,
      "##tfm": 7779,
      "##qxg": 7780,
      "##evp": 7781,
      "##qwn": 7782,
      "##65f": 7783,
      "##1o0": 7784,
      "##1w4": 7785,
      "##agx": 7786,
      "##16z": 7787,
      "##1y2": 7788,
      "##spt": 7789,
      "##angk": 7790,
      "##opi": 7791,
      "##tlf": 7792,
      "##ruit": 7793,
      "##16m": 7794,
      "##ryk": 7795,
      "##64d": 7796,
      "##1l2": 7797,
      "##ogi": 7798,
      "##1dy": 7799,
      "##1mh": 7800,
      "##55d": 7801,
      "##1x0": 7802,
      "##tvy": 7803,
      "atlant": 7804,
      "##eros": 7805,
      "##ucp": 7806,
      "##grr": 7807,
      "##arzt": 7808,
      "##ajl": 7809,
      "##phw": 7810,
      "##16v": 7811,
      "##67d": 7812,
      "##ezy": 7813,
      "##qfp": 7814,
      "##1v0": 7815,
      "##tfy": 7816,
      "##1fy": 7817,
      "##agb": 7818,
      "##krw": 7819,
      "##ejk": 7820,
      "##cym": 7821,
      "##1m0": 7822,
      "##grv": 7823,
      "##plh": 7824,
      "extr": 7825,
      "##eer": 7826,
      "##syx": 7827,
      "##istry": 7828,
      "##pyv": 7829,
      "##1fw": 7830,
      "##1i2": 7831,
      "##thf": 7832,
      "##nyw": 7833,
      "##1q0": 7834,
      "##egj": 7835,
      "##1fv": 7836,
      "##khm": 7837,
      "##udk": 7838,
      "##1g7": 7839,
      "##shj": 7840,
      "##ihg": 7841,
      "##1q2": 7842,
      "##1cv": 7843,
      "##oje": 7844,
      "##1ro": 7845,
      "##ohu": 7846,
      "##tjw": 7847,
      "##1kz": 7848,
      "##1x3": 7849,
      "asc": 7850,
      "zen": 7851,
      "##syp": 7852,
      "##1s3": 7853,
      "##iai": 7854,
      "##ryx": 7855,
      "##1z0": 7856,
      "##plast": 7857,
      "##1nf": 7858,
      "##1s2": 7859,
      "##b38": 7860,
      "##tmp": 7861,
      "##homes": 7862,
      "##odi": 7863,
      "dim": 7864,
      "##less": 7865,
      "##ijs": 7866,
      "##ifu": 7867,
      "##1r0": 7868,
      "##graph": 7869,
      "##oos": 7870,
      "##asx": 7871,
      "##eji": 7872,
      "##34f": 7873,
      "##1k8": 7874,
      "##reviews": 7875,
      "##1yh": 7876,
      "##shp": 7877,
      "##19j": 7878,
      "##sfy": 7879,
      "##nrf": 7880,
      "##12z": 7881,
      "##358": 7882,
      "##16j": 7883,
      "##ajx": 7884,
      "##1r3": 7885,
      "##tgv": 7886,
      "##upu": 7887,
      "##nxm": 7888,
      "##itec": 7889,
      "##prt": 7890,
      "tub": 7891,
      "##abv": 7892,
      "##awx": 7893,
      "##1nz": 7894,
      "##agj": 7895,
      "##inancial": 7896,
      "##qqk": 7897,
      "##701": 7898,
      "##chd": 7899,
      "##head": 7900,
      "##1j9": 7901,
      "##pxm": 7902,
      "##ltd": 7903,
      "##1k9": 7904,
      "##xyy": 7905,
      "##qot": 7906,
      "##music": 7907,
      "##1en": 7908,
      "##tvw": 7909,
      "##1cx": 7910,
      "##njr": 7911,
      "##ancer": 7912,
      "##uhe": 7913,
      "##ught": 7914,
      "##eht": 7915,
      "##19w": 7916,
      "##10j": 7917,
      "##akx": 7918,
      "##avx": 7919,
      "##ryb": 7920,
      "##kyh": 7921,
      "##pvv": 7922,
      "##idu": 7923,
      "##ejp": 7924,
      "##tkd": 7925,
      "##smh": 7926,
      "##quipment": 7927,
      "##tsg": 7928,
      "##1m6": 7929,
      "##qgg": 7930,
      "spor": 7931,
      "##ucg": 7932,
      "##1l3": 7933,
      "##sxr": 7934,
      "ron": 7935,
      "##ipu": 7936,
      "##ibu": 7937,
      "##pvr": 7938,
      "international": 7939,
      "##imu": 7940,
      "##1s0": 7941,
      "##1us": 7942,
      "##13m": 7943,
      "##grj": 7944,
      "##lyk": 7945,
      "##tlh": 7946,
      "##grw": 7947,
      "##13y": 7948,
      "mang": 7949,
      "##myv": 7950,
      "##kmw": 7951,
      "##abj": 7952,
      "##trad": 7953,
      "##ells": 7954,
      "##qsg": 7955,
      "##sts": 7956,
      "##1y0": 7957,
      "##pyj": 7958,
      "##1on": 7959,
      "##ecz": 7960,
      "##sxv": 7961,
      "##1or": 7962,
      "##1is": 7963,
      "##88d": 7964,
      "##1bw": 7965,
      "plus": 7966,
      "##tlp": 7967,
      "##africa": 7968,
      "##utc": 7969,
      "bos": 7970,
      "spb": 7971,
      "##ument": 7972,
      "##ebj": 7973,
      "##aval": 7974,
      "##pyy": 7975,
      "##kfm": 7976,
      "##ebx": 7977,
      "##awp": 7978,
      "##14y": 7979,
      "##1bz": 7980,
      "##ebar": 7981,
      "##359": 7982,
      "##ebg": 7983,
      "##klr": 7984,
      "##pml": 7985,
      "##ndr": 7986,
      "##1gr": 7987,
      "##tfl": 7988,
      "wis": 7989,
      "##icos": 7990,
      "##qps": 7991,
      "##24h": 7992,
      "##1el": 7993,
      "##1k7": 7994,
      "##1dv": 7995,
      "##kdr": 7996,
      "##1n7": 7997,
      "##nmf": 7998,
      "##adx": 7999,
      "##1u0": 8000,
      "ald": 8001,
      "##shi": 8002,
      "##exs": 8003,
      "##1fz": 8004,
      "##1cw": 8005,
      "##ijb": 8006,
      "##qyn": 8007,
      "##1o3": 8008,
      "##trh": 8009,
      "##nwr": 8010,
      "usa": 8011,
      "##qoj": 8012,
      "sir": 8013,
      "##1dz": 8014,
      "##qdd": 8015,
      "##acn": 8016,
      "##kxm": 8017,
      "asp": 8018,
      "##food": 8019,
      "##1i0": 8020,
      "##eview": 8021,
      "##nnf": 8022,
      "##ocb": 8023,
      "##1cz": 8024,
      "##1os": 8025,
      "##snk": 8026,
      "##19y": 8027,
      "##15m": 8028,
      "##qqr": 8029,
      "##twh": 8030,
      "##activ": 8031,
      "##udb": 8032,
      "##ejg": 8033,
      "##1g5": 8034,
      "##byv": 8035,
      "##1t0": 8036,
      "china": 8037,
      "##smn": 8038,
      "##tkf": 8039,
      "##tpk": 8040,
      "##1w0": 8041,
      "egy": 8042,
      "##quo": 8043,
      "##grf": 8044,
      "##19h": 8045,
      "##uwn": 8046,
      "##tll": 8047,
      "##myj": 8048,
      "##axr": 8049,
      "##njv": 8050,
      "##prz": 8051,
      "##trf": 8052,
      "##347": 8053,
      "##ogb": 8054,
      "##syh": 8055,
      "map": 8056,
      "##aub": 8057,
      "##eju": 8058,
      "##nnl": 8059,
      "##sjj": 8060,
      "##nrx": 8061,
      "mind": 8062,
      "##emu": 8063,
      "##ehg": 8064,
      "##aste": 8065,
      "##1dw": 8066,
      "##1ll": 8067,
      "search": 8068,
      "##1ol": 8069,
      "##nmp": 8070,
      "##ozz": 8071,
      "##kyv": 8072,
      "kaz": 8073,
      "##idz": 8074,
      "##fdc": 8075,
      "##1p0": 8076,
      "##unu": 8077,
      "##1h5": 8078,
      "##kjm": 8079,
      "##sfv": 8080,
      "##1l0": 8081,
      "##oqb": 8082,
      "##axg": 8083,
      "##tkh": 8084,
      "##nmj": 8085,
      "rod": 8086,
      "##axp": 8087,
      "##pyd": 8088,
      "##krj": 8089,
      "##blj": 8090,
      "##ebk": 8091,
      "##upz": 8092,
      "##14m": 8093,
      "##69f": 8094,
      "##1bm": 8095,
      "##overs": 8096,
      "##shf": 8097,
      "##ehb": 8098,
      "##skd": 8099,
      "##mmj": 8100,
      "medical": 8101,
      "##otu": 8102,
      "##1t3": 8103,
      "##inance": 8104,
      "##eton": 8105,
      "##kwr": 8106,
      "##1p3": 8107,
      "conc": 8108,
      "##1n9": 8109,
      "##aum": 8110,
      "##qhn": 8111,
      "##1bx": 8112,
      "##1j7": 8113,
      "##555": 8114,
      "##12y": 8115,
      "##1kj": 8116,
      "##1nm": 8117,
      "##anis": 8118,
      "##ezm": 8119,
      "##1dx": 8120,
      "##nyl": 8121,
      "##pvp": 8122,
      "##etu": 8123,
      "##opu": 8124,
      "##15y": 8125,
      "##ffy": 8126,
      "##aji": 8127,
      "##shar": 8128,
      "##svp": 8129,
      "##tkx": 8130,
      "##68f": 8131,
      "##19v": 8132,
      "##13v": 8133,
      "##clm": 8134,
      "##spe": 8135,
      "##swj": 8136,
      "##myl": 8137,
      "##igt": 8138,
      "##14w": 8139,
      "##1cm": 8140,
      "##exo": 8141,
      "##plk": 8142,
      "##12h": 8143,
      "##1dm": 8144,
      "##1ml": 8145,
      "##1jj": 8146,
      "##egs": 8147,
      "80a": 8148,
      "##krp": 8149,
      "##srd": 8150,
      "##prs": 8151,
      "##shx": 8152,
      "##ccm": 8153,
      "##cdm": 8154,
      "##phx": 8155,
      "##99d": 8156,
      "##ibk": 8157,
      "##stal": 8158,
      "##18v": 8159,
      "##ryg": 8160,
      "##uft": 8161,
      "##evs": 8162,
      "##uxn": 8163,
      "##mmw": 8164,
      "##opz": 8165,
      "##01j": 8166,
      "##18w": 8167,
      "##pjy": 8168,
      "##1as": 8169,
      "##ucks": 8170,
      "##19z": 8171,
      "##kyj": 8172,
      "##ebu": 8173,
      "##658": 8174,
      "##shl": 8175,
      "##ugt": 8176,
      "##ewb": 8177,
      "##tsn": 8178,
      "##ingg": 8179,
      "##10w": 8180,
      "##nyx": 8181,
      "##pap": 8182,
      "##nyr": 8183,
      "##ngh": 8184,
      "##opro": 8185,
      "##16w": 8186,
      "##svj": 8187,
      "##byw": 8188,
      "##qbx": 8189,
      "##67f": 8190,
      "##ehs": 8191,
      "##18y": 8192,
      "##1wl": 8193,
      "##12x": 8194,
      "##17v": 8195,
      "##17y": 8196,
      "##1fm": 8197,
      "##uxb": 8198,
      "##pvw": 8199,
      "##blw": 8200,
      "##ahc": 8201,
      "##pld": 8202,
      "##axl": 8203,
      "##ozv": 8204,
      "##byb": 8205,
      "hard": 8206,
      "##andco": 8207,
      "##ecg": 8208,
      "##cond": 8209,
      "##grl": 8210,
      "##partners": 8211,
      "##ayi": 8212,
      "##14v": 8213,
      "##14z": 8214,
      "##1fx": 8215,
      "##qfk": 8216,
      "##tgw": 8217,
      "##64f": 8218,
      "##swx": 8219,
      "##sxw": 8220,
      "##slh": 8221,
      "##nvv": 8222,
      "##krf": 8223,
      "##arta": 8224,
      "##tjx": 8225,
      "##ouo": 8226,
      "##1gj": 8227,
      "express": 8228,
      "##sjp": 8229,
      "##shh": 8230,
      "##ecp": 8231,
      "##13x": 8232,
      "##nmw": 8233,
      "##nfm": 8234,
      "coun": 8235,
      "##urz": 8236,
      "##13w": 8237,
      "##nml": 8238,
      "lind": 8239,
      "##skn": 8240,
      "##njy": 8241,
      "##01h": 8242,
      "##ubk": 8243,
      "##nfr": 8244,
      "##afs": 8245,
      "##16y": 8246,
      "##10y": 8247,
      "##tpd": 8248,
      "##tnh": 8249,
      "##ucb": 8250,
      "##phl": 8251,
      "##tdy": 8252,
      "##ofa": 8253,
      "##1yl": 8254,
      "##nlj": 8255,
      "##tmd": 8256,
      "##opq": 8257,
      "##anas": 8258,
      "##afn": 8259,
      "##omc": 8260,
      "##tpn": 8261,
      "##sdv": 8262,
      "##eden": 8263,
      "##ogt": 8264,
      "##10v": 8265,
      "##ables": 8266,
      "##tmh": 8267,
      "##nlw": 8268,
      "##abx": 8269,
      "##pto": 8270,
      "##iuo": 8271,
      "##linic": 8272,
      "##london": 8273,
      "##echt": 8274,
      "##1rl": 8275,
      "motor": 8276,
      "run": 8277,
      "##abad": 8278,
      "##15v": 8279,
      "##18z": 8280,
      "##syk": 8281,
      "gaz": 8282,
      "##ibs": 8283,
      "##nvr": 8284,
      "##389": 8285,
      "##olit": 8286,
      "##ivb": 8287,
      "##iyt": 8288,
      "##1hj": 8289,
      "##1j5": 8290,
      "##clf": 8291,
      "##cld": 8292,
      "##pmx": 8293,
      "##pvy": 8294,
      "##10h": 8295,
      "##qxn": 8296,
      "##1vl": 8297,
      "##sjf": 8298,
      "##nrh": 8299,
      "##55f": 8300,
      "avt": 8301,
      "##15z": 8302,
      "##nhm": 8303,
      "##eweb": 8304,
      "##arx": 8305,
      "##19x": 8306,
      "##omu": 8307,
      "##cht": 8308,
      "##ikc": 8309,
      "bag": 8310,
      "##oxb": 8311,
      "##1xl": 8312,
      "##apn": 8313,
      "fol": 8314,
      "start": 8315,
      "##krl": 8316,
      "##12w": 8317,
      "##txv": 8318,
      "##unct": 8319,
      "##pyf": 8320,
      "fal": 8321,
      "##ppd": 8322,
      "##acx": 8323,
      "##1nj": 8324,
      "##qdl": 8325,
      "##tvl": 8326,
      "##reativ": 8327,
      "##kmj": 8328,
      "##uxt": 8329,
      "##grd": 8330,
      "##1er": 8331,
      "##upa": 8332,
      "##ukc": 8333,
      "##sgh": 8334,
      "yam": 8335,
      "##tjj": 8336,
      "##uhu": 8337,
      "##iden": 8338,
      "##17z": 8339,
      "##phf": 8340,
      "##oja": 8341,
      "##cyy": 8342,
      "##ndy": 8343,
      "##blx": 8344,
      "mais": 8345,
      "##anel": 8346,
      "##47d": 8347,
      "##ocn": 8348,
      "##izk": 8349,
      "##epair": 8350,
      "##18j": 8351,
      "##italia": 8352,
      "##otz": 8353,
      "##qnt": 8354,
      "##byk": 8355,
      "##kmf": 8356,
      "##ovs": 8357,
      "##ubu": 8358,
      "##17j": 8359,
      "##nnp": 8360,
      "##1in": 8361,
      "##awb": 8362,
      "##afts": 8363,
      "##avs": 8364,
      "##ixc": 8365,
      "##kjv": 8366,
      "pak": 8367,
      "##qos": 8368,
      "##anco": 8369,
      "ide": 8370,
      "##17w": 8371,
      "##1kr": 8372,
      "##qqv": 8373,
      "##ifb": 8374,
      "##18x": 8375,
      "##mys": 8376,
      "##1n5": 8377,
      "##mmf": 8378,
      "##overy": 8379,
      "##others": 8380,
      "##chf": 8381,
      "##avp": 8382,
      "##14x": 8383,
      "##phj": 8384,
      "##ouu": 8385,
      "##empl": 8386,
      "##ebi": 8387,
      "##qrt": 8388,
      "##avb": 8389,
      "##01r": 8390,
      "##258": 8391,
      "##ilu": 8392,
      "##snn": 8393,
      "##tkp": 8394,
      "##17x": 8395,
      "##ques": 8396,
      "##swf": 8397,
      "##qdh": 8398,
      "##efs": 8399,
      "##1dj": 8400,
      "##svl": 8401,
      "##txw": 8402,
      "past": 8403,
      "##krh": 8404,
      "##15x": 8405,
      "##myk": 8406,
      "cad": 8407,
      "##obg": 8408,
      "##qhg": 8409,
      "##qpz": 8410,
      "##ivs": 8411,
      "##eway": 8412,
      "##acp": 8413,
      "##ddb": 8414,
      "##llm": 8415,
      "##kjr": 8416,
      "##iqs": 8417,
      "##kmd": 8418,
      "game": 8419,
      "##axb": 8420,
      "##tvj": 8421,
      "##lyx": 8422,
      "##1hh": 8423,
      "##alin": 8424,
      "##16x": 8425,
      "##een": 8426,
      "##umz": 8427,
      "##bll": 8428,
      "##10x": 8429,
      "##ndf": 8430,
      "lun": 8431,
      "##iuu": 8432,
      "##afp": 8433,
      "##pvj": 8434,
      "##pdx": 8435,
      "##678": 8436,
      "##itter": 8437,
      "##nlf": 8438,
      "##txr": 8439,
      "##nnh": 8440,
      "##kvr": 8441,
      "##1g4": 8442,
      "##onom": 8443,
      "##pln": 8444,
      "##iqt": 8445,
      "##1jr": 8446,
      "##trd": 8447,
      "##qns": 8448,
      "##sld": 8449,
      "##egp": 8450,
      "##sxx": 8451,
      "##sss": 8452,
      "##udn": 8453,
      "##iae": 8454,
      "##nmx": 8455,
      "##txy": 8456,
      "##apu": 8457,
      "##ifn": 8458,
      "##ajp": 8459,
      "##1hr": 8460,
      "##twx": 8461,
      "##uzm": 8462,
      "##krx": 8463,
      "nag": 8464,
      "##14j": 8465,
      "##sfx": 8466,
      "##klw": 8467,
      "##egk": 8468,
      "##bdm": 8469,
      "##klf": 8470,
      "##qrs": 8471,
      "##swl": 8472,
      "##pri": 8473,
      "##369": 8474,
      "##tjf": 8475,
      "##emed": 8476,
      "enc": 8477,
      "##plac": 8478,
      "##10z": 8479,
      "##pwv": 8480,
      "##2000": 8481,
      "##athl": 8482,
      "##sgx": 8483,
      "##tvf": 8484,
      "##eren": 8485,
      "##phh": 8486,
      "##1g6": 8487,
      "##tfv": 8488,
      "##iyc": 8489,
      "##qpq": 8490,
      "##tmn": 8491,
      "##tgx": 8492,
      "##dfb": 8493,
      "##ibp": 8494,
      "##1h2": 8495,
      "##1jh": 8496,
      "##1gh": 8497,
      "##grh": 8498,
      "##twp": 8499,
      "##pvl": 8500,
      "##imag": 8501,
      "##tmk": 8502,
      "##kdm": 8503,
      "##659": 8504,
      "##13z": 8505,
      "##ufn": 8506,
      "##svf": 8507,
      "##1n4": 8508,
      "##tvx": 8509,
      "##pmh": 8510,
      "clean": 8511,
      "fat": 8512,
      "seo": 8513,
      "##oter": 8514,
      "##ohs": 8515,
      "##cmf": 8516,
      "##esu": 8517,
      "##slk": 8518,
      "##thx": 8519,
      "##ojt": 8520,
      "##qbj": 8521,
      "##amu": 8522,
      "wir": 8523,
      "##sgf": 8524,
      "##47f": 8525,
      "##tww": 8526,
      "what": 8527,
      "##urgery": 8528,
      "lond": 8529,
      "##ajg": 8530,
      "##klj": 8531,
      "##bcm": 8532,
      "cut": 8533,
      "fort": 8534,
      "##1cr": 8535,
      "##srn": 8536,
      "##uqt": 8537,
      "##pjw": 8538,
      "##1bj": 8539,
      "##1nh": 8540,
      "##grx": 8541,
      "##15w": 8542,
      "##oqc": 8543,
      "##quq": 8544,
      "##1n2": 8545,
      "mul": 8546,
      "well": 8547,
      "##13j": 8548,
      "##1h4": 8549,
      "##byg": 8550,
      "##200": 8551,
      "##sxj": 8552,
      "dal": 8553,
      "##exn": 8554,
      "##kvw": 8555,
      "##eit": 8556,
      "##swd": 8557,
      "##abn": 8558,
      "##ucu": 8559,
      "##nwh": 8560,
      "##scv": 8561,
      "##ohb": 8562,
      "##cdn": 8563,
      "##mmp": 8564,
      "##thj": 8565,
      "##368": 8566,
      "energy": 8567,
      "##akeup": 8568,
      "##ijz": 8569,
      "##nlp": 8570,
      "##iaa": 8571,
      "##xyv": 8572,
      "##etwork": 8573,
      "##krd": 8574,
      "##iler": 8575,
      "##stein": 8576,
      "##18h": 8577,
      "##kvv": 8578,
      "emb": 8579,
      "##istem": 8580,
      "##agk": 8581,
      "##skk": 8582,
      "##iwb": 8583,
      "##oju": 8584,
      "##tgf": 8585,
      "##558": 8586,
      "##1fj": 8587,
      "##309": 8588,
      "##eclub": 8589,
      "##99f": 8590,
      "##1g2": 8591,
      "##gyy": 8592,
      "##ajn": 8593,
      "##qqw": 8594,
      "##eprod": 8595,
      "##19l": 8596,
      "##ohe": 8597,
      "##nmd": 8598,
      "##sgj": 8599,
      "##kjy": 8600,
      "##1k5": 8601,
      "##tools": 8602,
      "##qmt": 8603,
      "##1h6": 8604,
      "##40d": 8605,
      "##trade": 8606,
      "##12r": 8607,
      "##twf": 8608,
      "##cre": 8609,
      "##iys": 8610,
      "##1j4": 8611,
      "##ngm": 8612,
      "##apor": 8613,
      "##ushi": 8614,
      "##chh": 8615,
      "##16r": 8616,
      "##twj": 8617,
      "##sgd": 8618,
      "##uhb": 8619,
      "##qlt": 8620,
      "##pfm": 8621,
      "##qcy": 8622,
      "##azin": 8623,
      "##pjj": 8624,
      "##myb": 8625,
      "##tfx": 8626,
      "sev": 8627,
      "##pvf": 8628,
      "##anner": 8629,
      "##sjl": 8630,
      "##qls": 8631,
      "##kfl": 8632,
      "##svx": 8633,
      "##innov": 8634,
      "##kyx": 8635,
      "##kvy": 8636,
      "##nwv": 8637,
      "##tgh": 8638,
      "##nrk": 8639,
      "pres": 8640,
      "##sjh": 8641,
      "##smg": 8642,
      "##tvp": 8643,
      "##15j": 8644,
      "##a5d": 8645,
      "##aram": 8646,
      "##ovt": 8647,
      "##pwy": 8648,
      "##ozr": 8649,
      "##nyk": 8650,
      "##cmd": 8651,
      "##uws": 8652,
      "##swp": 8653,
      "##gyd": 8654,
      "##ejn": 8655,
      "##awe": 8656,
      "##kyg": 8657,
      "##pwj": 8658,
      "##nnx": 8659,
      "##pyw": 8660,
      "##1j6": 8661,
      "##iof": 8662,
      "##cfc": 8663,
      "##pyl": 8664,
      "##ocp": 8665,
      "##mml": 8666,
      "##eler": 8667,
      "##oht": 8668,
      "##ozp": 8669,
      "##nvy": 8670,
      "##njj": 8671,
      "##ences": 8672,
      "##998": 8673,
      "ult": 8674,
      "##thh": 8675,
      "##kwy": 8676,
      "##qbh": 8677,
      "##iction": 8678,
      "##1br": 8679,
      "##tld": 8680,
      "##tdm": 8681,
      "##11t": 8682,
      "##kwh": 8683,
      "sco": 8684,
      "##orea": 8685,
      "##unge": 8686,
      "##349": 8687,
      "##qdp": 8688,
      "##qok": 8689,
      "##qms": 8690,
      "##bfc": 8691,
      "##oost": 8692,
      "james": 8693,
      "##odu": 8694,
      "##atica": 8695,
      "##nvw": 8696,
      "##sbx": 8697,
      "##alx": 8698,
      "##357": 8699,
      "##1k4": 8700,
      "##evb": 8701,
      "##tnk": 8702,
      "##pmn": 8703,
      "##1k6": 8704,
      "##byp": 8705,
      "##npk": 8706,
      "##ubp": 8707,
      "##pyp": 8708,
      "##fdm": 8709,
      "##efg": 8710,
      "##ffc": 8711,
      "##1g3": 8712,
      "##eyu": 8713,
      "##1bh": 8714,
      "##gmt": 8715,
      "fro": 8716,
      "##tjl": 8717,
      "##ayz": 8718,
      "##scd": 8719,
      "lem": 8720,
      "##qox": 8721,
      "##1g0": 8722,
      "##kjw": 8723,
      "pho": 8724,
      "##nhr": 8725,
      "##parts": 8726,
      "##13h": 8727,
      "##nrd": 8728,
      "##uve": 8729,
      "##oqo": 8730,
      "##myg": 8731,
      "##sjd": 8732,
      "##sxf": 8733,
      "anal": 8734,
      "##hyr": 8735,
      "fah": 8736,
      "##tvd": 8737,
      "ahm": 8738,
      "##chv": 8739,
      "##1cj": 8740,
      "##qst": 8741,
      "##1nr": 8742,
      "##qgn": 8743,
      "##tfw": 8744,
      "##txx": 8745,
      "##12l": 8746,
      "##svh": 8747,
      "##257": 8748,
      "advanc": 8749,
      "##njw": 8750,
      "##88f": 8751,
      "##tjp": 8752,
      "##apr": 8753,
      "##uxs": 8754,
      "##pjp": 8755,
      "##50d": 8756,
      "arg": 8757,
      "##kpk": 8758,
      "##irectory": 8759,
      "##qqj": 8760,
      "##uho": 8761,
      "##nxx": 8762,
      "abd": 8763,
      "##uqs": 8764,
      "##cyd": 8765,
      "##e01": 8766,
      "##sko": 8767,
      "##hyf": 8768,
      "##nfl": 8769,
      "##ieo": 8770,
      "##avis": 8771,
      "##1kh": 8772,
      "##twl": 8773,
      "##pxv": 8774,
      "##sfor": 8775,
      "##ajb": 8776,
      "##nvj": 8777,
      "fant": 8778,
      "##pjx": 8779,
      "##bby": 8780,
      "##1fr": 8781,
      "##ndd": 8782,
      "##hyy": 8783,
      "##tdv": 8784,
      "##nwy": 8785,
      "##11z": 8786,
      "##17h": 8787,
      "##ejb": 8788,
      "##plg": 8789,
      "joy": 8790,
      "##ocg": 8791,
      "##kmp": 8792,
      "##kdy": 8793,
      "##ije": 8794,
      "##sdw": 8795,
      "##uyc": 8796,
      "##bfm": 8797,
      "##ehu": 8798,
      "##nhv": 8799,
      "dest": 8800,
      "##278": 8801,
      "##onder": 8802,
      "##nvl": 8803,
      "##lott": 8804,
      "##19r": 8805,
      "##ayan": 8806,
      "##pmk": 8807,
      "##axk": 8808,
      "##58d": 8809,
      "##twd": 8810,
      "##kml": 8811,
      "##qfg": 8812,
      "##tgd": 8813,
      "##pfr": 8814,
      "##ecker": 8815,
      "##1j3": 8816,
      "##tgj": 8817,
      "##syg": 8818,
      "stev": 8819,
      "kev": 8820,
      "##1j2": 8821,
      "##nmh": 8822,
      "##1dr": 8823,
      "##eyz": 8824,
      "##16h": 8825,
      "diet": 8826,
      "##idel": 8827,
      "activ": 8828,
      "ges": 8829,
      "##efp": 8830,
      "##ento": 8831,
      "##uwb": 8832,
      "##thp": 8833,
      "##uwu": 8834,
      "##abz": 8835,
      "##ukz": 8836,
      "##10l": 8837,
      "##oha": 8838,
      "##blb": 8839,
      "##15h": 8840,
      "##sln": 8841,
      "you": 8842,
      "##ovb": 8843,
      "##1n6": 8844,
      "##pvx": 8845,
      "##byx": 8846,
      "##xym": 8847,
      "##nxr": 8848,
      "##00d": 8849,
      "##irz": 8850,
      "##pho": 8851,
      "1st": 8852,
      "gur": 8853,
      "##uvs": 8854,
      "##ewn": 8855,
      "##xyf": 8856,
      "eff": 8857,
      "##ocus": 8858,
      "##aju": 8859,
      "##npn": 8860,
      "##ucn": 8861,
      "##ezv": 8862,
      "##njx": 8863,
      "##afo": 8864,
      "##nnn": 8865,
      "##pyh": 8866,
      "##trn": 8867,
      "##xyj": 8868,
      "##kyk": 8869,
      "##ocom": 8870,
      "##ugc": 8871,
      "kas": 8872,
      "##movies": 8873,
      "##oqz": 8874,
      "orig": 8875,
      "pil": 8876,
      "##elen": 8877,
      "american": 8878,
      "##qlo": 8879,
      "##248": 8880,
      "##mmd": 8881,
      "##kld": 8882,
      "##uber": 8883,
      "##ioe": 8884,
      "##aal": 8885,
      "##eku": 8886,
      "##tkn": 8887,
      "trans": 8888,
      "##iral": 8889,
      "trend": 8890,
      "##uvo": 8891,
      "##1k2": 8892,
      "##308": 8893,
      "##tvh": 8894,
      "##nlx": 8895,
      "##pww": 8896,
      "##298": 8897,
      "##svd": 8898,
      "##glm": 8899,
      "dow": 8900,
      "##ppg": 8901,
      "##pxw": 8902,
      "elit": 8903,
      "##aweb": 8904,
      "sis": 8905,
      "##1dh": 8906,
      "##pfy": 8907,
      "##expo": 8908,
      "##scw": 8909,
      "##ozk": 8910,
      "##nld": 8911,
      "##srg": 8912,
      "##pmd": 8913,
      "##thl": 8914,
      "##iwi": 8915,
      "##tjh": 8916,
      "##istro": 8917,
      "##bbm": 8918,
      "##208": 8919,
      "prov": 8920,
      "##nfy": 8921,
      "##khv": 8922,
      "##iqq": 8923,
      "##1j0": 8924,
      "##boutique": 8925,
      "##obp": 8926,
      "##jrv": 8927,
      "##nost": 8928,
      "##cfm": 8929,
      "##anada": 8930,
      "##1h0": 8931,
      "##cleaning": 8932,
      "##ths": 8933,
      "90": 8934,
      "##property": 8935,
      "##obn": 8936,
      "##13r": 8937,
      "##pyx": 8938,
      "sweet": 8939,
      "##ijt": 8940,
      "##tng": 8941,
      "##iropract": 8942,
      "camping": 8943,
      "##cap": 8944,
      "##1fh": 8945,
      "##uht": 8946,
      "##nys": 8947,
      "deal": 8948,
      "##esta": 8949,
      "##udu": 8950,
      "english": 8951,
      "##559": 8952,
      "##rou": 8953,
      "##pjl": 8954,
      "##uye": 8955,
      "##01l": 8956,
      "##txf": 8957,
      "gir": 8958,
      "video": 8959,
      "##259": 8960,
      "##orte": 8961,
      "pir": 8962,
      "##iwe": 8963,
      "##njl": 8964,
      "##pxr": 8965,
      "##nwj": 8966,
      "##jyy": 8967,
      "##tlk": 8968,
      "##uvb": 8969,
      "##kmk": 8970,
      "##krk": 8971,
      "##xyr": 8972,
      "soft": 8973,
      "##nmk": 8974,
      "##209": 8975,
      "##blk": 8976,
      "##ihb": 8977,
      "##1n3": 8978,
      "##nnk": 8979,
      "cinem": 8980,
      "##kvj": 8981,
      "##shu": 8982,
      "##oxt": 8983,
      "##1h3": 8984,
      "baby": 8985,
      "##asar": 8986,
      "##14h": 8987,
      "##llv": 8988,
      "##ideas": 8989,
      "##urger": 8990,
      "##1rg": 8991,
      "##hyv": 8992,
      "##pvh": 8993,
      "##jrr": 8994,
      "##col": 8995,
      "##qkt": 8996,
      "##tpg": 8997,
      "##kvf": 8998,
      "99": 8999,
      "##nyg": 9000,
      "##kmx": 9001,
      "##ocu": 9002,
      "##1k0": 9003,
      "##kyb": 9004,
      "##tkk": 9005,
      "living": 9006,
      "##qql": 9007,
      "myd": 9008,
      "##brm": 9009,
      "##njf": 9010,
      "##kvd": 9011,
      "##kfy": 9012,
      "##48d": 9013,
      "##blh": 9014,
      "##fdy": 9015,
      "##gmv": 9016,
      "##trg": 9017,
      "##mmx": 9018,
      "##1nl": 9019,
      "##pjf": 9020,
      "##10r": 9021,
      "##ngy": 9022,
      "##iei": 9023,
      "##ooi": 9024,
      "##hyj": 9025,
      "##15r": 9026,
      "##ojs": 9027,
      "##14r": 9028,
      "##ufb": 9029,
      "barb": 9030,
      "hous": 9031,
      "##egb": 9032,
      "##57d": 9033,
      "##ejs": 9034,
      "##nvf": 9035,
      "##pxj": 9036,
      "##sdd": 9037,
      "##nxw": 9038,
      "##skg": 9039,
      "##ojb": 9040,
      "sound": 9041,
      "##ibn": 9042,
      "##nkn": 9043,
      "##1k3": 9044,
      "##1xg": 9045,
      "##sbm": 9046,
      "##sfj": 9047,
      "##izv": 9048,
      "##kjx": 9049,
      "##apts": 9050,
      "##ubt": 9051,
      "##ujb": 9052,
      "##tdw": 9053,
      "##kwj": 9054,
      "##upi": 9055,
      "##qdk": 9056,
      "var": 9057,
      "##adam": 9058,
      "##1kl": 9059,
      "##a8d": 9060,
      "##upon": 9061,
      "##cbm": 9062,
      "##ofe": 9063,
      "##hrm": 9064,
      "hear": 9065,
      "##chk": 9066,
      "##uju": 9067,
      "##xyd": 9068,
      "cour": 9069,
      "##1hl": 9070,
      "##khw": 9071,
      "##44d": 9072,
      "##uuu": 9073,
      "##ubn": 9074,
      "##tnn": 9075,
      "##pwf": 9076,
      "##pwl": 9077,
      "##a9d": 9078,
      "##1lg": 9079,
      "##pwp": 9080,
      "rac": 9081,
      "##enta": 9082,
      "##kvl": 9083,
      "##gvm": 9084,
      "##jvm": 9085,
      "##eje": 9086,
      "##txj": 9087,
      "##uzd": 9088,
      "eld": 9089,
      "##sbv": 9090,
      "inm": 9091,
      "##18r": 9092,
      "##pvd": 9093,
      "##beach": 9094,
      "##17r": 9095,
      "##1gl": 9096,
      "##49d": 9097,
      "##ators": 9098,
      "tay": 9099,
      "##mmh": 9100,
      "##a5f": 9101,
      "##qdg": 9102,
      "cook": 9103,
      "vision": 9104,
      "##tyt": 9105,
      "##qow": 9106,
      "##jrj": 9107,
      "##008": 9108,
      "##grk": 9109,
      "##398": 9110,
      "##aeu": 9111,
      "united": 9112,
      "##rown": 9113,
      "##clv": 9114,
      "##nxv": 9115,
      "##jym": 9116,
      "##avid": 9117,
      "##myx": 9118,
      "##iok": 9119,
      "##nvx": 9120,
      "##nwl": 9121,
      "##odz": 9122,
      "##17l": 9123,
      "##kww": 9124,
      "##40f": 9125,
      "##ccy": 9126,
      "##obc": 9127,
      "##ueu": 9128,
      "##entistry": 9129,
      "##tbw": 9130,
      "##uyz": 9131,
      "##sgp": 9132,
      "##klx": 9133,
      "abs": 9134,
      "##qkb": 9135,
      "##llp": 9136,
      "##kjj": 9137,
      "##cpa": 9138,
      "##1pg": 9139,
      "##ilz": 9140,
      "##pwd": 9141,
      "##ixo": 9142,
      "##klp": 9143,
      "##nww": 9144,
      "institut": 9145,
      "##af8": 9146,
      "##efn": 9147,
      "##348": 9148,
      "krist": 9149,
      "##you": 9150,
      "##qnz": 9151,
      "##289": 9152,
      "##ifc": 9153,
      "##kmh": 9154,
      "##txl": 9155,
      "##eball": 9156,
      "boy": 9157,
      "##evc": 9158,
      "##445": 9159,
      "##50f": 9160,
      "##ozg": 9161,
      "##nwx": 9162,
      "pus": 9163,
      "##ebt": 9164,
      "##16l": 9165,
      "##gmw": 9166,
      "##889": 9167,
      "mail": 9168,
      "##ative": 9169,
      "##awi": 9170,
      "##gyv": 9171,
      "##ofu": 9172,
      "##izf": 9173,
      "##ihs": 9174,
      "##1mb": 9175,
      "fis": 9176,
      "##18l": 9177,
      "##sxh": 9178,
      "##nwf": 9179,
      "##1mg": 9180,
      "##sxl": 9181,
      "##khr": 9182,
      "academ": 9183,
      "##qol": 9184,
      "##sdx": 9185,
      "##kwv": 9186,
      "##sbw": 9187,
      "##pfv": 9188,
      "##actor": 9189,
      "##ozj": 9190,
      "##a7d": 9191,
      "##1yg": 9192,
      "##epot": 9193,
      "##oue": 9194,
      "princ": 9195,
      "##1n0": 9196,
      "##ngv": 9197,
      "##kxv": 9198,
      "##378": 9199,
      "##2f8": 9200,
      "##scx": 9201,
      "##qfn": 9202,
      "##ecas": 9203,
      "##evelopment": 9204,
      "##iav": 9205,
      "##ession": 9206,
      "##epu": 9207,
      "##kjf": 9208,
      "##rmr": 9209,
      "##eao": 9210,
      "##bcy": 9211,
      "##1cl": 9212,
      "##sxp": 9213,
      "##qts": 9214,
      "##qqs": 9215,
      "##ortal": 9216,
      "sag": 9217,
      "##qun": 9218,
      "##oxo": 9219,
      "##iqc": 9220,
      "michael": 9221,
      "wol": 9222,
      "##249": 9223,
      "tit": 9224,
      "##cdy": 9225,
      "##207": 9226,
      "##acz": 9227,
      "##imz": 9228,
      "##kxf": 9229,
      "##eb8": 9230,
      "christian": 9231,
      "abr": 9232,
      "tap": 9233,
      "##tjd": 9234,
      "##hyh": 9235,
      "##ewood": 9236,
      "##izr": 9237,
      "##nrg": 9238,
      "##txd": 9239,
      "##jrw": 9240,
      "##iyi": 9241,
      "##45d": 9242,
      "##ngl": 9243,
      "##ixe": 9244,
      "##pwx": 9245,
      "##19c": 9246,
      "##ollection": 9247,
      "sing": 9248,
      "##sxd": 9249,
      "##qip": 9250,
      "sid": 9251,
      "##njh": 9252,
      "##iqo": 9253,
      "##uhs": 9254,
      "##tbm": 9255,
      "##gxm": 9256,
      "##tfj": 9257,
      "##qnb": 9258,
      "##ufs": 9259,
      "##qyb": 9260,
      "##jwm": 9261,
      "##qcv": 9262,
      "franc": 9263,
      "##llr": 9264,
      "##cmv": 9265,
      "put": 9266,
      "##1vg": 9267,
      "##nvp": 9268,
      "edu": 9269,
      "##ujs": 9270,
      "##ouston": 9271,
      "##scf": 9272,
      "rand": 9273,
      "##ffv": 9274,
      "##pwh": 9275,
      "##annel": 9276,
      "##uha": 9277,
      "##nvd": 9278,
      "##14l": 9279,
      "##qsy": 9280,
      "##kpn": 9281,
      "jer": 9282,
      "##009": 9283,
      "##inks": 9284,
      "##sjk": 9285,
      "nin": 9286,
      "##ezi": 9287,
      "##1xk": 9288,
      "##gmr": 9289,
      "##pdm": 9290,
      "##swk": 9291,
      "##xyx": 9292,
      "##glv": 9293,
      "##pxl": 9294,
      "##pxp": 9295,
      "##1yk": 9296,
      "##gyw": 9297,
      "##qua": 9298,
      "##uxc": 9299,
      "##qpb": 9300,
      "##nxj": 9301,
      "capital": 9302,
      "##agt": 9303,
      "##ffl": 9304,
      "##gwm": 9305,
      "##atural": 9306,
      "lou": 9307,
      "##prb": 9308,
      "tru": 9309,
      "##ubi": 9310,
      "##nwd": 9311,
      "##pru": 9312,
      "##izw": 9313,
      "ach": 9314,
      "##xyw": 9315,
      "##ryt": 9316,
      "##ghm": 9317,
      "##58f": 9318,
      "##izon": 9319,
      "##657": 9320,
      "##txh": 9321,
      "##1wg": 9322,
      "##1dl": 9323,
      "##tdf": 9324,
      "##nmn": 9325,
      "##kwf": 9326,
      "##abt": 9327,
      "##inting": 9328,
      "##jmr": 9329,
      "##slg": 9330,
      "##interiors": 9331,
      "##stb": 9332,
      "##icar": 9333,
      "##nfv": 9334,
      "##pxf": 9335,
      "##qks": 9336,
      "##qlb": 9337,
      "##sfh": 9338,
      "##nwp": 9339,
      "slo": 9340,
      "##qtl": 9341,
      "##1yb": 9342,
      "##tvk": 9343,
      "##qkz": 9344,
      "##hyp": 9345,
      "##gyn": 9346,
      "##tha": 9347,
      "##tmg": 9348,
      "thev": 9349,
      "##npg": 9350,
      "##ivt": 9351,
      "##ujt": 9352,
      "mys": 9353,
      "##2017": 9354,
      "##imon": 9355,
      "##nyb": 9356,
      "##kxr": 9357,
      "##kxw": 9358,
      "wat": 9359,
      "##eston": 9360,
      "##sdj": 9361,
      "##377": 9362,
      "##endy": 9363,
      "##izj": 9364,
      "##pps": 9365,
      "##3d8": 9366,
      "##qum": 9367,
      "##59d": 9368,
      "##2d9": 9369,
      "##bdy": 9370,
      "##ffr": 9371,
      "movies": 9372,
      "##a0d": 9373,
      "##ipi": 9374,
      "##brd": 9375,
      "##nvh": 9376,
      "##gwr": 9377,
      "##uvt": 9378,
      "##iwu": 9379,
      "##spc": 9380,
      "##idal": 9381,
      "##ocks": 9382,
      "##ndw": 9383,
      "##557": 9384,
      "##brf": 9385,
      "hyd": 9386,
      "##tgp": 9387,
      "##angh": 9388,
      "##ujc": 9389,
      "##13l": 9390,
      "##ozx": 9391,
      "##2d8": 9392,
      "##therapy": 9393,
      "##ndv": 9394,
      "##njp": 9395,
      "##cook": 9396,
      "##svk": 9397,
      "##abp": 9398,
      "##iyz": 9399,
      "##kvx": 9400,
      "##jxm": 9401,
      "##ozf": 9402,
      "official": 9403,
      "##pjh": 9404,
      "##bfy": 9405,
      "##lyt": 9406,
      "##ihe": 9407,
      "##iwo": 9408,
      "##3b8": 9409,
      "##phk": 9410,
      "##byn": 9411,
      "##379": 9412,
      "lex": 9413,
      "##txp": 9414,
      "##cwm": 9415,
      "##games": 9416,
      "##qqt": 9417,
      "##estud": 9418,
      "##kvh": 9419,
      "##ucs": 9420,
      "##sdh": 9421,
      "##ivu": 9422,
      "##ibc": 9423,
      "beh": 9424,
      "##lyc": 9425,
      "##ufu": 9426,
      "##nhj": 9427,
      "##qoy": 9428,
      "##367": 9429,
      "##cyf": 9430,
      "##277": 9431,
      "##edz": 9432,
      "##jrf": 9433,
      "##ozw": 9434,
      "##okz": 9435,
      "##1wk": 9436,
      "##hyl": 9437,
      "##e7d": 9438,
      "vik": 9439,
      "##eeu": 9440,
      "##1re": 9441,
      "##15l": 9442,
      "##prov": 9443,
      "##ofo": 9444,
      "##spz": 9445,
      "##qmz": 9446,
      "##ee8": 9447,
      "##nrn": 9448,
      "##ueo": 9449,
      "rol": 9450,
      "vint": 9451,
      "##qup": 9452,
      "##roo": 9453,
      "mim": 9454,
      "##egan": 9455,
      "##1rk": 9456,
      "##ivc": 9457,
      "has": 9458,
      "##iog": 9459,
      "##qcx": 9460,
      "##01c": 9461,
      "fur": 9462,
      "##uper": 9463,
      "this": 9464,
      "hay": 9465,
      "##ea8": 9466,
      "##279": 9467,
      "##3f8": 9468,
      "##omin": 9469,
      "##avc": 9470,
      "##jmv": 9471,
      "##productions": 9472,
      "##eeo": 9473,
      "##sound": 9474,
      "##kfv": 9475,
      "##scj": 9476,
      "##fdr": 9477,
      "dek": 9478,
      "##ments": 9479,
      "##report": 9480,
      "compl": 9481,
      "alw": 9482,
      "##awc": 9483,
      "##quu": 9484,
      "##3b9": 9485,
      "##emusic": 9486,
      "##tsb": 9487,
      "##297": 9488,
      "##uqo": 9489,
      "math": 9490,
      "##gyf": 9491,
      "##pool": 9492,
      "##pxx": 9493,
      "##quk": 9494,
      "##1lb": 9495,
      "##qqx": 9496,
      "##qcm": 9497,
      "##cyw": 9498,
      "kol": 9499,
      "##animal": 9500,
      "##uwt": 9501,
      "##mmk": 9502,
      "##tdd": 9503,
      "##ef8": 9504,
      "##pfw": 9505,
      "##qqh": 9506,
      "##shg": 9507,
      "##49f": 9508,
      "##bys": 9509,
      "##1jl": 9510,
      "##aei": 9511,
      "##59f": 9512,
      "##ikz": 9513,
      "##1xb": 9514,
      "##grg": 9515,
      "##nxh": 9516,
      "##6f8": 9517,
      "##qlz": 9518,
      "##pvk": 9519,
      "##shn": 9520,
      "##tfh": 9521,
      "##nhd": 9522,
      "##jvv": 9523,
      "hit": 9524,
      "##kxj": 9525,
      "##gwy": 9526,
      "##ab8": 9527,
      "##1mk": 9528,
      "##uva": 9529,
      "##aller": 9530,
      "list": 9531,
      "##qoh": 9532,
      "##acts": 9533,
      "##kjh": 9534,
      "##3d9": 9535,
      "##3f9": 9536,
      "##qbk": 9537,
      "##307": 9538,
      "##2f9": 9539,
      "##klk": 9540,
      "##nhw": 9541,
      "##pxh": 9542,
      "##bmd": 9543,
      "##tjk": 9544,
      "##tbv": 9545,
      "##igc": 9546,
      "##quz": 9547,
      "##tdx": 9548,
      "##kmn": 9549,
      "##iob": 9550,
      "##lmr": 9551,
      "jur": 9552,
      "##ppt": 9553,
      "##tps": 9554,
      "##698": 9555,
      "##logistics": 9556,
      "##ucky": 9557,
      "##avt": 9558,
      "##ea9": 9559,
      "##gyp": 9560,
      "##qyt": 9561,
      "##00f": 9562,
      "##10k": 9563,
      "##stt": 9564,
      "##azv": 9565,
      "##1pb": 9566,
      "##qbg": 9567,
      "##apparel": 9568,
      "##gjj": 9569,
      "##ef9": 9570,
      "##tln": 9571,
      "##kjl": 9572,
      "##pfx": 9573,
      "##uwe": 9574,
      "##nlk": 9575,
      "hann": 9576,
      "##blg": 9577,
      "##12g": 9578,
      "##ioa": 9579,
      "##roi": 9580,
      "##ec8": 9581,
      "##af9": 9582,
      "iam": 9583,
      "##aeo": 9584,
      "##proj": 9585,
      "pel": 9586,
      "##fair": 9587,
      "##kvp": 9588,
      "##rmv": 9589,
      "##jmj": 9590,
      "##nvk": 9591,
      "##ee9": 9592,
      "##397": 9593,
[...]
